{
  "version": "1.0",
  "truncation": null,
  "padding": null,
  "added_tokens": [
    {
      "id": 0,
      "content": "[CLS]",
      "single_word": false,
      "lstrip": false,
      "rstrip": false,
      "normalized": false,
      "special": true
    },
    {
      "id": 1,
      "content": "[SEP]",
      "single_word": false,
      "lstrip": false,
      "rstrip": false,
      "normalized": false,
      "special": true
    },
    {
      "id": 2,
      "content": "[PAD]",
      "single_word": false,
      "lstrip": false,
      "rstrip": false,
      "normalized": false,
      "special": true
    },
    {
      "id": 3,
      "content": "[UNK]",
      "single_word": false,
      "lstrip": false,
      "rstrip": false,
      "normalized": false,
      "special": true
    },
    {
      "id": 4,
      "content": "[MASK]",
      "single_word": false,
      "lstrip": false,
      "rstrip": false,
      "normalized": false,
      "special": true
    }
  ],
  "normalizer": {
    "type": "BertNormalizer",
    "clean_text": true,
    "handle_chinese_chars": true,
    "strip_accents": true,
    "lowercase": true
  },
  "pre_tokenizer": {
    "type": "BertPreTokenizer"
  },
  "post_processor": null,
  "decoder": {
    "type": "WordPiece",
    "prefix": "##",
    "cleanup": true
  },
  "model": {
    "type": "WordPiece",
    "unk_token": "[UNK]",
    "continuing_subword_prefix": "##",
    "max_input_chars_per_word": 100,
    "vocab": {
      "[CLS]": 0,
      "[SEP]": 1,
      "[PAD]": 2,
      "[UNK]": 3,
      "[MASK]": 4,
      "!": 5,
      "\"": 6,
      "#": 7,
      "$": 8,
      "%": 9,
      "&": 10,
      "'": 11,
      "(": 12,
      ")": 13,
      "*": 14,
      ",": 15,
      "-": 16,
      ".": 17,
      "/": 18,
      "0": 19,
      "1": 20,
      "2": 21,
      "3": 22,
      "4": 23,
      "5": 24,
      "6": 25,
      "7": 26,
      "8": 27,
      "9": 28,
      ":": 29,
      ";": 30,
      "<": 31,
      "=": 32,
      ">": 33,
      "?": 34,
      "\\": 35,
      "]": 36,
      "a": 37,
      "b": 38,
      "c": 39,
      "d": 40,
      "e": 41,
      "f": 42,
      "g": 43,
      "h": 44,
      "i": 45,
      "j": 46,
      "k": 47,
      "l": 48,
      "m": 49,
      "n": 50,
      "o": 51,
      "p": 52,
      "q": 53,
      "r": 54,
      "s": 55,
      "t": 56,
      "u": 57,
      "v": 58,
      "w": 59,
      "x": 60,
      "y": 61,
      "z": 62,
      "{": 63,
      "|": 64,
      "}": 65,
      "£": 66,
      "¨": 67,
      "©": 68,
      "¬": 69,
      "¿": 70,
      "–": 71,
      "’": 72,
      "“": 73,
      "”": 74,
      "♪": 75,
      "##u": 76,
      "##i": 77,
      "##l": 78,
      "##t": 79,
      "##n": 80,
      "##g": 81,
      "##h": 82,
      "##o": 83,
      "##s": 84,
      "##e": 85,
      "##r": 86,
      "##y": 87,
      "##p": 88,
      "##m": 89,
      "##d": 90,
      "##a": 91,
      "##k": 92,
      "##x": 93,
      "##c": 94,
      "##w": 95,
      "##b": 96,
      "##v": 97,
      "##q": 98,
      "##f": 99,
      "##6": 100,
      "##z": 101,
      "##7": 102,
      "##£": 103,
      "##¬": 104,
      "##j": 105,
      "##9": 106,
      "##5": 107,
      "##2": 108,
      "##0": 109,
      "##4": 110,
      "##8": 111,
      "##1": 112,
      "##3": 113,
      "##©": 114,
      "##¨": 115,
      "##on": 116,
      "##ar": 117,
      "##he": 118,
      "to": 119,
      "##ard": 120,
      "##ld": 121,
      "le": 122,
      "she": 123,
      "##ldon": 124,
      "sheldon": 125,
      "##onard": 126,
      "leonard": 127,
      "##en": 128,
      "##ou": 129,
      "##ow": 130,
      "##er": 131,
      "##in": 132,
      "how": 133,
      "howard": 134,
      "##ny": 135,
      "you": 136,
      "ra": 137,
      "raj": 138,
      "pen": 139,
      "penny": 140,
      "##at": 141,
      "the": 142,
      "##ing": 143,
      "th": 144,
      "##an": 145,
      "##re": 146,
      "##ll": 147,
      "##st": 148,
      "##et": 149,
      "##or": 150,
      "##it": 151,
      "##ot": 152,
      "an": 153,
      "##le": 154,
      "it": 155,
      "##ed": 156,
      "##om": 157,
      "wh": 158,
      "##ad": 159,
      "in": 160,
      "##es": 161,
      "##is": 162,
      "of": 163,
      "re": 164,
      "and": 165,
      "##ay": 166,
      "that": 167,
      "##ve": 168,
      "##ic": 169,
      "we": 170,
      "##as": 171,
      "##ut": 172,
      "be": 173,
      "##al": 174,
      "on": 175,
      "st": 176,
      "##ri": 177,
      "##oo": 178,
      "##gh": 179,
      "me": 180,
      "am": 181,
      "is": 182,
      "he": 183,
      "##ett": 184,
      "ha": 185,
      "##ke": 186,
      "##id": 187,
      "##ern": 188,
      "what": 189,
      "do": 190,
      "amy": 191,
      "##ac": 192,
      "##ght": 193,
      "my": 194,
      "##se": 195,
      "bern": 196,
      "##ette": 197,
      "##adette": 198,
      "bernadette": 199,
      "go": 200,
      "##ent": 201,
      "##ight": 202,
      "for": 203,
      "##art": 204,
      "##ith": 205,
      "##ver": 206,
      "not": 207,
      "with": 208,
      "##ion": 209,
      "have": 210,
      "no": 211,
      "your": 212,
      "##im": 213,
      "##all": 214,
      "##ir": 215,
      "li": 216,
      "##ly": 217,
      "this": 218,
      "se": 219,
      "don": 220,
      "##pp": 221,
      "##ur": 222,
      "##ust": 223,
      "##ant": 224,
      "her": 225,
      "so": 226,
      "##ould": 227,
      "are": 228,
      "##ra": 229,
      "kn": 230,
      "##ome": 231,
      "##rs": 232,
      "##ro": 233,
      "can": 234,
      "oh": 235,
      "was": 236,
      "ne": 237,
      "just": 238,
      "know": 239,
      "##am": 240,
      "mrs": 241,
      "##her": 242,
      "##ast": 243,
      "##ie": 244,
      "but": 245,
      "##ol": 246,
      "##ch": 247,
      "as": 248,
      "all": 249,
      "su": 250,
      "##out": 251,
      "##ab": 252,
      "sh": 253,
      "ab": 254,
      "##ry": 255,
      "##ce": 256,
      "##ct": 257,
      "##per": 258,
      "##ally": 259,
      "stu": 260,
      "at": 261,
      "ye": 262,
      "whe": 263,
      "if": 264,
      "out": 265,
      "up": 266,
      "like": 267,
      "##ill": 268,
      "##ack": 269,
      "right": 270,
      "##il": 271,
      "##nd": 272,
      "##ood": 273,
      "##end": 274,
      "about": 275,
      "did": 276,
      "##ake": 277,
      "##king": 278,
      "pri": 279,
      "get": 280,
      "mo": 281,
      "##ah": 282,
      "going": 283,
      "ok": 284,
      "te": 285,
      "ex": 286,
      "there": 287,
      "well": 288,
      "want": 289,
      "##au": 290,
      "okay": 291,
      "ch": 292,
      "##ter": 293,
      "##ate": 294,
      "sp": 295,
      "##ya": 296,
      "##ge": 297,
      "##ck": 298,
      "priya": 299,
      "one": 300,
      "stuart": 301,
      "al": 302,
      "##un": 303,
      "here": 304,
      "##um": 305,
      "##op": 306,
      "ll": 307,
      "de": 308,
      "##ss": 309,
      "##ink": 310,
      "gu": 311,
      "yeah": 312,
      "##one": 313,
      "wor": 314,
      "##ine": 315,
      "##ook": 316,
      "##hing": 317,
      "##and": 318,
      "would": 319,
      "good": 320,
      "com": 321,
      "dr": 322,
      "##oot": 323,
      "##ation": 324,
      "##ind": 325,
      "past": 326,
      "why": 327,
      "fr": 328,
      "con": 329,
      "who": 330,
      "##ous": 331,
      "##ooper": 332,
      "##ice": 333,
      "##ali": 334,
      "than": 335,
      "see": 336,
      "##us": 337,
      "pl": 338,
      "they": 339,
      "##ig": 340,
      "##ist": 341,
      "##itt": 342,
      "got": 343,
      "##ep": 344,
      "say": 345,
      "##ul": 346,
      "think": 347,
      "now": 348,
      "ve": 349,
      "##other": 350,
      "##lie": 351,
      "##riend": 352,
      "let": 353,
      "pro": 354,
      "##able": 355,
      "when": 356,
      "or": 357,
      "him": 358,
      "any": 359,
      "##ment": 360,
      "some": 361,
      "##ys": 362,
      "##ain": 363,
      "##ive": 364,
      "ro": 365,
      "really": 366,
      "##rapp": 367,
      "##ooth": 368,
      "lo": 369,
      "##el": 370,
      "tim": 371,
      "en": 372,
      "##irl": 373,
      "un": 374,
      "##oothrapp": 375,
      "##oothrappali": 376,
      "come": 377,
      "##itz": 378,
      "from": 379,
      "##ff": 380,
      "##ess": 381,
      "ma": 382,
      "his": 383,
      "by": 384,
      "us": 385,
      "look": 386,
      "les": 387,
      "##owitz": 388,
      "##olowitz": 389,
      "##ittle": 390,
      "little": 391,
      "sor": 392,
      "time": 393,
      "bo": 394,
      "girl": 395,
      "sc": 396,
      "yes": 397,
      "int": 398,
      "##ick": 399,
      "thank": 400,
      "fe": 401,
      "pre": 402,
      "could": 403,
      "##ong": 404,
      "hey": 405,
      "ever": 406,
      "##ue": 407,
      "##ving": 408,
      "tal": 409,
      "##ere": 410,
      "##ley": 411,
      "ag": 412,
      "##ure": 413,
      "##ause": 414,
      "back": 415,
      "##ers": 416,
      "will": 417,
      "##ound": 418,
      "sorry": 419,
      "off": 420,
      "po": 421,
      "##ven": 422,
      "co": 423,
      "##our": 424,
      "##ree": 425,
      "does": 426,
      "##ame": 427,
      "tell": 428,
      "##act": 429,
      "##ak": 430,
      "##ort": 431,
      "man": 432,
      "##ity": 433,
      "##ase": 434,
      "thing": 435,
      "were": 436,
      "had": 437,
      "ar": 438,
      "friend": 439,
      "gre": 440,
      "need": 441,
      "##pt": 442,
      "##ore": 443,
      "wom": 444,
      "##ip": 445,
      "##lf": 446,
      "##ber": 447,
      "then": 448,
      "##ect": 449,
      "our": 450,
      "night": 451,
      "##own": 452,
      "sm": 453,
      "pe": 454,
      "##na": 455,
      "##way": 456,
      "##ble": 457,
      "leslie": 458,
      "wa": 459,
      "may": 460,
      "##iz": 461,
      "ap": 462,
      "make": 463,
      "sa": 464,
      "##cooper": 465,
      "mrscooper": 466,
      "##ace": 467,
      "##koothrappali": 468,
      "##iss": 469,
      "##rip": 470,
      "mean": 471,
      "cl": 472,
      "over": 473,
      "too": 474,
      "bec": 475,
      "take": 476,
      "##ond": 477,
      "car": 478,
      "has": 479,
      "didn": 480,
      "tr": 481,
      "tw": 482,
      "##os": 483,
      "##ies": 484,
      "where": 485,
      "som": 486,
      "##og": 487,
      "wait": 488,
      "##pl": 489,
      "##th": 490,
      "bu": 491,
      "##ripke": 492,
      "##if": 493,
      "work": 494,
      "somet": 495,
      "should": 496,
      "been": 497,
      "new": 498,
      "because": 499,
      "kripke": 500,
      "##ide": 501,
      "great": 502,
      "more": 503,
      "##ough": 504,
      "##ang": 505,
      "act": 506,
      "ph": 507,
      "##ag": 508,
      "##onna": 509,
      "##ery": 510,
      "sure": 511,
      "them": 512,
      "bl": 513,
      "##we": 514,
      "call": 515,
      "gonna": 516,
      "und": 517,
      "##be": 518,
      "##artment": 519,
      "br": 520,
      "mother": 521,
      "##ose": 522,
      "##de": 523,
      "part": 524,
      "##ath": 525,
      "##ass": 526,
      "guys": 527,
      "down": 528,
      "way": 529,
      "##ap": 530,
      "##int": 531,
      "bever": 532,
      "cooper": 533,
      "every": 534,
      "##ich": 535,
      "doing": 536,
      "em": 537,
      "hi": 538,
      "ho": 539,
      "##ther": 540,
      "##age": 541,
      "talk": 542,
      "di": 543,
      "happ": 544,
      "woman": 545,
      "gr": 546,
      "##dy": 547,
      "##ars": 548,
      "che": 549,
      "under": 550,
      "two": 551,
      "fl": 552,
      "##ence": 553,
      "something": 554,
      "##ought": 555,
      "dis": 556,
      "into": 557,
      "very": 558,
      "##sh": 559,
      "uh": 560,
      "zack": 561,
      "beverley": 562,
      "fun": 563,
      "hell": 564,
      "put": 565,
      "sec": 566,
      "##ile": 567,
      "##ia": 568,
      "pr": 569,
      "play": 570,
      "apartment": 571,
      "##ress": 572,
      "never": 573,
      "wil": 574,
      "##ableh": 575,
      "el": 576,
      "##ople": 577,
      "people": 578,
      "app": 579,
      "step": 580,
      "fine": 581,
      "##ning": 582,
      "ple": 583,
      "wolowitz": 584,
      "##uch": 585,
      "##ock": 586,
      "again": 587,
      "##em": 588,
      "##wolowitz": 589,
      "##eth": 590,
      "##ite": 591,
      "only": 592,
      "other": 593,
      "even": 594,
      "miss": 595,
      "im": 596,
      "inter": 597,
      "##ish": 598,
      "ass": 599,
      "kind": 600,
      "hel": 601,
      "spe": 602,
      "ac": 603,
      "##ating": 604,
      "mrswolowitz": 605,
      "said": 606,
      "##thing": 607,
      "wr": 608,
      "##ually": 609,
      "##day": 610,
      "##cu": 611,
      "fir": 612,
      "steph": 613,
      "sex": 614,
      "maybe": 615,
      "##ial": 616,
      "##get": 617,
      "##est": 618,
      "try": 619,
      "##ty": 620,
      "bar": 621,
      "god": 622,
      "##ady": 623,
      "ad": 624,
      "##ach": 625,
      "feel": 626,
      "first": 627,
      "please": 628,
      "jo": 629,
      "love": 630,
      "res": 631,
      "##av": 632,
      "##qu": 633,
      "##urn": 634,
      "##olog": 635,
      "nice": 636,
      "doesn": 637,
      "per": 638,
      "qu": 639,
      "##ious": 640,
      "guy": 641,
      "af": 642,
      "cour": 643,
      "day": 644,
      "ask": 645,
      "help": 646,
      "give": 647,
      "room": 648,
      "##ool": 649,
      "much": 650,
      "##friend": 651,
      "thought": 652,
      "##mm": 653,
      "ke": 654,
      "##man": 655,
      "belie": 656,
      "##self": 657,
      "start": 658,
      "que": 659,
      "##ade": 660,
      "##ouser": 661,
      "big": 662,
      "which": 663,
      "##di": 664,
      "##ated": 665,
      "##ical": 666,
      "still": 667,
      "##ablehouser": 668,
      "##ire": 669,
      "happen": 670,
      "##sten": 671,
      "##les": 672,
      "##mon": 673,
      "##ory": 674,
      "##bo": 675,
      "believe": 676,
      "three": 677,
      "rem": 678,
      "cou": 679,
      "rel": 680,
      "wat": 681,
      "mom": 682,
      "##ance": 683,
      "##ord": 684,
      "might": 685,
      "drkoothrappali": 686,
      "##air": 687,
      "mrskoothrappali": 688,
      "cr": 689,
      "home": 690,
      "course": 691,
      "##ild": 692,
      "friends": 693,
      "sl": 694,
      "boy": 695,
      "last": 696,
      "bed": 697,
      "##stion": 698,
      "point": 699,
      "##wn": 700,
      "thr": 701,
      "##leonard": 702,
      "things": 703,
      "##ily": 704,
      "pastleonard": 705,
      "##ign": 706,
      "##ute": 707,
      "gl": 708,
      "##pen": 709,
      "mar": 710,
      "##my": 711,
      "##xt": 712,
      "##fe": 713,
      "##ship": 714,
      "##att": 715,
      "cont": 716,
      "pret": 717,
      "hou": 718,
      "##stand": 719,
      "bett": 720,
      "hand": 721,
      "sle": 722,
      "##ved": 723,
      "excu": 724,
      "excuse": 725,
      "mon": 726,
      "##ave": 727,
      "##hed": 728,
      "##enn": 729,
      "##ise": 730,
      "question": 731,
      "koothrappali": 732,
      "##ves": 733,
      "self": 734,
      "thanks": 735,
      "hello": 736,
      "second": 737,
      "bre": 738,
      "swe": 739,
      "##ner": 740,
      "##ding": 741,
      "##ans": 742,
      "guess": 743,
      "sci": 744,
      "##fore": 745,
      "show": 746,
      "long": 747,
      "talking": 748,
      "##ways": 749,
      "better": 750,
      "mind": 751,
      "##she": 752,
      "##ary": 753,
      "understand": 754,
      "##ple": 755,
      "bet": 756,
      "lau": 757,
      "ser": 758,
      "before": 759,
      "##vers": 760,
      "wrong": 761,
      "being": 762,
      "actually": 763,
      "hot": 764,
      "##ual": 765,
      "their": 766,
      "##etting": 767,
      "find": 768,
      "par": 769,
      "isn": 770,
      "always": 771,
      "mat": 772,
      "imp": 773,
      "kid": 774,
      "##sheldon": 775,
      "cra": 776,
      "hang": 777,
      "supp": 778,
      "##oney": 779,
      "made": 780,
      "##oc": 781,
      "##are": 782,
      "door": 783,
      "phys": 784,
      "cle": 785,
      "hu": 786,
      "si": 787,
      "##der": 788,
      "##ft": 789,
      "##ents": 790,
      "##rain": 791,
      "pastsheldon": 792,
      "##room": 793,
      "anything": 794,
      "##uck": 795,
      "while": 796,
      "comp": 797,
      "mor": 798,
      "turn": 799,
      "##ons": 800,
      "told": 801,
      "nothing": 802,
      "att": 803,
      "after": 804,
      "having": 805,
      "##abeth": 806,
      "open": 807,
      "##ell": 808,
      "those": 809,
      "##izabeth": 810,
      "diff": 811,
      "elizabeth": 812,
      "des": 813,
      "##aking": 814,
      "##hes": 815,
      "smother": 816,
      "bad": 817,
      "dri": 818,
      "ob": 819,
      "##ics": 820,
      "listen": 821,
      "girlfriend": 822,
      "keep": 823,
      "rec": 824,
      "##urt": 825,
      "sleep": 826,
      "gi": 827,
      "missy": 828,
      "lot": 829,
      "sound": 830,
      "hear": 831,
      "care": 832,
      "getting": 833,
      "##ful": 834,
      "these": 835,
      "head": 836,
      "someone": 837,
      "##blem": 838,
      "interest": 839,
      "##ennis": 840,
      "min": 841,
      "own": 842,
      "problem": 843,
      "##nt": 844,
      "##ition": 845,
      "dennis": 846,
      "##ict": 847,
      "stop": 848,
      "pretty": 849,
      "book": 850,
      "fin": 851,
      "ramon": 852,
      "##ird": 853,
      "inv": 854,
      "str": 855,
      "ramona": 856,
      "hum": 857,
      "##ud": 858,
      "##ee": 859,
      "life": 860,
      "sw": 861,
      "sit": 862,
      "##inking": 863,
      "jim": 864,
      "##oice": 865,
      "##ried": 866,
      "loo": 867,
      "##ull": 868,
      "##kes": 869,
      "meet": 870,
      "##body": 871,
      "pick": 872,
      "ter": 873,
      "##ese": 874,
      "old": 875,
      "uni": 876,
      "ton": 877,
      "##co": 878,
      "star": 879,
      "eat": 880,
      "gablehouser": 881,
      "##ling": 882,
      "next": 883,
      "##cept": 884,
      "years": 885,
      "saying": 886,
      "##ult": 887,
      "cat": 888,
      "went": 889,
      "hold": 890,
      "acc": 891,
      "relation": 892,
      "toget": 893,
      "through": 894,
      "morning": 895,
      "together": 896,
      "fact": 897,
      "##ings": 898,
      "##oth": 899,
      "another": 900,
      "##less": 901,
      "around": 902,
      "relationship": 903,
      "##ail": 904,
      "mov": 905,
      "##ub": 906,
      "##side": 907,
      "##ph": 908,
      "tonight": 909,
      "hop": 910,
      "exper": 911,
      "party": 912,
      "jimmy": 913,
      "cre": 914,
      "din": 915,
      "##ont": 916,
      "##led": 917,
      "done": 918,
      "differ": 919,
      "pa": 920,
      "##oy": 921,
      "##ser": 922,
      "##ek": 923,
      "##ze": 924,
      "##ize": 925,
      "watch": 926,
      "aw": 927,
      "mr": 928,
      "war": 929,
      "hal": 930,
      "##by": 931,
      "place": 932,
      "sk": 933,
      "won": 934,
      "##so": 935,
      "##ically": 936,
      "must": 937,
      "pers": 938,
      "run": 939,
      "sy": 940,
      "wear": 941,
      "plan": 942,
      "prof": 943,
      "bus": 944,
      "gen": 945,
      "sign": 946,
      "um": 947,
      "##ens": 948,
      "##anc": 949,
      "wouldn": 950,
      "women": 951,
      "same": 952,
      "##ude": 953,
      "##ider": 954,
      "##ject": 955,
      "##ince": 956,
      "##orm": 957,
      "lesley": 958,
      "date": 959,
      "##ater": 960,
      "rest": 961,
      "best": 962,
      "making": 963,
      "trying": 964,
      "away": 965,
      "cor": 966,
      "sur": 967,
      "tre": 968,
      "##ows": 969,
      "##aton": 970,
      "summ": 971,
      "food": 972,
      "la": 973,
      "use": 974,
      "##ting": 975,
      "ide": 976,
      "name": 977,
      "##gg": 978,
      "##icia": 979,
      "##ably": 980,
      "alicia": 981,
      "person": 982,
      "##ert": 983,
      "##ates": 984,
      "order": 985,
      "##ear": 986,
      "##any": 987,
      "eng": 988,
      "break": 989,
      "cool": 990,
      "##ever": 991,
      "without": 992,
      "##ions": 993,
      "super": 994,
      "stuff": 995,
      "enough": 996,
      "playing": 997,
      "bit": 998,
      "##ib": 999,
      "##pr": 1000,
      "##ason": 1001,
      "stay": 1002,
      "move": 1003,
      "world": 1004,
      "comic": 1005,
      "##osed": 1006,
      "laugh": 1007,
      "end": 1008,
      "hard": 1009,
      "wal": 1010,
      "##ms": 1011,
      "##az": 1012,
      "##ors": 1013,
      "real": 1014,
      "##ash": 1015,
      "most": 1016,
      "exp": 1017,
      "wanted": 1018,
      "happened": 1019,
      "cause": 1020,
      "week": 1021,
      "sub": 1022,
      "##ian": 1023,
      "dec": 1024,
      "##ister": 1025,
      "bring": 1026,
      "sweet": 1027,
      "page": 1028,
      "wond": 1029,
      "##cial": 1030,
      "thinking": 1031,
      "read": 1032,
      "also": 1033,
      "word": 1034,
      "dinner": 1035,
      "summer": 1036,
      "face": 1037,
      "sch": 1038,
      "##how": 1039,
      "bas": 1040,
      "##up": 1041,
      "##sw": 1042,
      "##fer": 1043,
      "##vel": 1044,
      "compl": 1045,
      "emily": 1046,
      "high": 1047,
      "else": 1048,
      "looking": 1049,
      "wonder": 1050,
      "bri": 1051,
      "since": 1052,
      "##ank": 1053,
      "stand": 1054,
      "wasn": 1055,
      "space": 1056,
      "prob": 1057,
      "##bert": 1058,
      "##ew": 1059,
      "##llow": 1060,
      "##ently": 1061,
      "##istant": 1062,
      "##ember": 1063,
      "matter": 1064,
      "00": 1065,
      "ev": 1066,
      "game": 1067,
      "money": 1068,
      "##cess": 1069,
      "##zy": 1070,
      "answ": 1071,
      "yourself": 1072,
      "coming": 1073,
      "bye": 1074,
      "##ology": 1075,
      "huh": 1076,
      "men": 1077,
      "##ball": 1078,
      "##fort": 1079,
      "##atham": 1080,
      "check": 1081,
      "remember": 1082,
      "fam": 1083,
      "sn": 1084,
      "sar": 1085,
      "##str": 1086,
      "ind": 1087,
      "idea": 1088,
      "year": 1089,
      "##ations": 1090,
      "probably": 1091,
      "num": 1092,
      "##uc": 1093,
      "##ger": 1094,
      "##aut": 1095,
      "##ange": 1096,
      "##rist": 1097,
      "cons": 1098,
      "ent": 1099,
      "met": 1100,
      "##ret": 1101,
      "once": 1102,
      "spock": 1103,
      "pastra": 1104,
      "agree": 1105,
      "house": 1106,
      "movie": 1107,
      "cut": 1108,
      "four": 1109,
      "lab": 1110,
      "##ible": 1111,
      "##dd": 1112,
      "reg": 1113,
      "##ction": 1114,
      "wants": 1115,
      "dep": 1116,
      "##enc": 1117,
      "##ita": 1118,
      "inc": 1119,
      "living": 1120,
      "pasthow": 1121,
      "everything": 1122,
      "assistant": 1123,
      "pastraj": 1124,
      "pasthoward": 1125,
      "ge": 1126,
      "win": 1127,
      "##ler": 1128,
      "store": 1129,
      "expl": 1130,
      "used": 1131,
      "##iously": 1132,
      "ele": 1133,
      "kill": 1134,
      "light": 1135,
      "##ho": 1136,
      "##ci": 1137,
      "##whe": 1138,
      "anyway": 1139,
      "mag": 1140,
      "pres": 1141,
      "happy": 1142,
      "lal": 1143,
      "reason": 1144,
      "unt": 1145,
      "smart": 1146,
      "set": 1147,
      "heard": 1148,
      "##ention": 1149,
      "##arth": 1150,
      "science": 1151,
      "lalita": 1152,
      "far": 1153,
      "pol": 1154,
      "sim": 1155,
      "sister": 1156,
      "##ark": 1157,
      "gold": 1158,
      "knock": 1159,
      "##ush": 1160,
      "scre": 1161,
      "means": 1162,
      "half": 1163,
      "bro": 1164,
      "##li": 1165,
      "##ward": 1166,
      "##iment": 1167,
      "exact": 1168,
      "child": 1169,
      "deal": 1170,
      "##ular": 1171,
      "phone": 1172,
      "cheese": 1173,
      "terri": 1174,
      "dam": 1175,
      "##ither": 1176,
      "##ants": 1177,
      "rock": 1178,
      "enter": 1179,
      "perf": 1180,
      "bab": 1181,
      "luck": 1182,
      "ru": 1183,
      "##gin": 1184,
      "##ific": 1185,
      "sounds": 1186,
      "dav": 1187,
      "fig": 1188,
      "found": 1189,
      "##lly": 1190,
      "such": 1191,
      "christ": 1192,
      "coll": 1193,
      "kidding": 1194,
      "different": 1195,
      "answer": 1196,
      "##gablehouser": 1197,
      "##pid": 1198,
      "##ready": 1199,
      "##gest": 1200,
      "already": 1201,
      "drgablehouser": 1202,
      "says": 1203,
      "resp": 1204,
      "bedroom": 1205,
      "human": 1206,
      "univers": 1207,
      "bow": 1208,
      "both": 1209,
      "ey": 1210,
      "late": 1211,
      "train": 1212,
      "##iv": 1213,
      "##ne": 1214,
      "##yp": 1215,
      "##ma": 1216,
      "poss": 1217,
      "called": 1218,
      "physics": 1219,
      "hope": 1220,
      "until": 1221,
      "david": 1222,
      "red": 1223,
      "##oh": 1224,
      "##ower": 1225,
      "hair": 1226,
      "##rop": 1227,
      "char": 1228,
      "chick": 1229,
      "class": 1230,
      "##ween": 1231,
      "between": 1232,
      "drive": 1233,
      "top": 1234,
      "leave": 1235,
      "##ense": 1236,
      "##oup": 1237,
      "heart": 1238,
      "sug": 1239,
      "scient": 1240,
      "ooh": 1241,
      "##ix": 1242,
      "##mate": 1243,
      "##orr": 1244,
      "indi": 1245,
      "##ctor": 1246,
      "whole": 1247,
      "buy": 1248,
      "month": 1249,
      "interesting": 1250,
      "number": 1251,
      "fo": 1252,
      "fat": 1253,
      "kurt": 1254,
      "##gs": 1255,
      "##ene": 1256,
      "stupid": 1257,
      "##unch": 1258,
      "working": 1259,
      "comm": 1260,
      "bath": 1261,
      "five": 1262,
      "free": 1263,
      "sat": 1264,
      "##ric": 1265,
      "inf": 1266,
      "##idd": 1267,
      "live": 1268,
      "##ross": 1269,
      "makes": 1270,
      "figure": 1271,
      "yet": 1272,
      "##ets": 1273,
      "##its": 1274,
      "##urse": 1275,
      "outside": 1276,
      "##ume": 1277,
      "funny": 1278,
      "barry": 1279,
      "clear": 1280,
      "paper": 1281,
      "school": 1282,
      "card": 1283,
      "dou": 1284,
      "fre": 1285,
      "##mo": 1286,
      "##00": 1287,
      "tom": 1288,
      "##als": 1289,
      "##pped": 1290,
      "build": 1291,
      "walk": 1292,
      "exactly": 1293,
      "dum": 1294,
      "##ki": 1295,
      "##cc": 1296,
      "##erg": 1297,
      "ready": 1298,
      "sho": 1299,
      "team": 1300,
      "ext": 1301,
      "front": 1302,
      "box": 1303,
      "office": 1304,
      "resear": 1305,
      "crazy": 1306,
      "cent": 1307,
      "later": 1308,
      "voice": 1309,
      "##lt": 1310,
      "ins": 1311,
      "myself": 1312,
      "supposed": 1313,
      "university": 1314,
      "sing": 1315,
      "taking": 1316,
      "##ied": 1317,
      "##eter": 1318,
      "##ited": 1319,
      "rep": 1320,
      "##irt": 1321,
      "test": 1322,
      "conf": 1323,
      "##akes": 1324,
      "aren": 1325,
      "##aps": 1326,
      "add": 1327,
      "count": 1328,
      "each": 1329,
      "ring": 1330,
      "today": 1331,
      "##ature": 1332,
      "whatever": 1333,
      "many": 1334,
      "hours": 1335,
      "bat": 1336,
      "ca": 1337,
      "came": 1338,
      "ear": 1339,
      "line": 1340,
      "mach": 1341,
      "wow": 1342,
      "##lc": 1343,
      "##stad": 1344,
      "##pping": 1345,
      "##raw": 1346,
      "##unk": 1347,
      "unc": 1348,
      "apolog": 1349,
      "boyfriend": 1350,
      "surpr": 1351,
      "damn": 1352,
      "research": 1353,
      "gableh": 1354,
      "nurse": 1355,
      "lear": 1356,
      "left": 1357,
      "welc": 1358,
      "beh": 1359,
      "##ility": 1360,
      "##auser": 1361,
      "drink": 1362,
      "##itting": 1363,
      "gott": 1364,
      "took": 1365,
      "everyone": 1366,
      "water": 1367,
      "laughing": 1368,
      "gablehauser": 1369,
      "wed": 1370,
      "##lin": 1371,
      "##girl": 1372,
      "##fstad": 1373,
      "ste": 1374,
      "sol": 1375,
      "rob": 1376,
      "roommate": 1377,
      "moment": 1378,
      "siri": 1379,
      "wearing": 1380,
      "consider": 1381,
      "dude": 1382,
      "gave": 1383,
      "pass": 1384,
      "tra": 1385,
      "##ness": 1386,
      "##br": 1387,
      "##ste": 1388,
      "haven": 1389,
      "##ident": 1390,
      "def": 1391,
      "worry": 1392,
      "news": 1393,
      "finally": 1394,
      "experiment": 1395,
      "welcome": 1396,
      "##fstadter": 1397,
      "rid": 1398,
      "##ster": 1399,
      "enj": 1400,
      "geor": 1401,
      "goldf": 1402,
      "perfect": 1403,
      "dress": 1404,
      "gra": 1405,
      "wy": 1406,
      "##gu": 1407,
      "##gr": 1408,
      "stan": 1409,
      "doctor": 1410,
      "gets": 1411,
      "conc": 1412,
      "trans": 1413,
      "couple": 1414,
      "six": 1415,
      "wyatt": 1416,
      "brain": 1417,
      "dist": 1418,
      "##ium": 1419,
      "##red": 1420,
      "seen": 1421,
      "ups": 1422,
      "moving": 1423,
      "comes": 1424,
      "partic": 1425,
      "prom": 1426,
      "sarah": 1427,
      "ah": 1428,
      "beth": 1429,
      "dad": 1430,
      "hit": 1431,
      "side": 1432,
      "##kows": 1433,
      "its": 1434,
      "shot": 1435,
      "wheaton": 1436,
      "spend": 1437,
      "dear": 1438,
      "rosten": 1439,
      "few": 1440,
      "##ift": 1441,
      "police": 1442,
      "chicken": 1443,
      "##orrow": 1444,
      "enjoy": 1445,
      "bethany": 1446,
      "##kowski": 1447,
      "rostenkowski": 1448,
      "fri": 1449,
      "pot": 1450,
      "ret": 1451,
      "forget": 1452,
      "looks": 1453,
      "evening": 1454,
      "adv": 1455,
      "parents": 1456,
      "##fortable": 1457,
      "indian": 1458,
      "equ": 1459,
      "pay": 1460,
      "##latham": 1461,
      "##ely": 1462,
      "##ax": 1463,
      "##rect": 1464,
      "mrslatham": 1465,
      "##avor": 1466,
      "##azing": 1467,
      "family": 1468,
      "goldfard": 1469,
      "eas": 1470,
      "kiss": 1471,
      "##ator": 1472,
      "##orn": 1473,
      "##ision": 1474,
      "goes": 1475,
      "##ional": 1476,
      "body": 1477,
      "cost": 1478,
      "coff": 1479,
      "true": 1480,
      "secret": 1481,
      "case": 1482,
      "fair": 1483,
      "honey": 1484,
      "pack": 1485,
      "toby": 1486,
      "beaut": 1487,
      "mem": 1488,
      "##urs": 1489,
      "anyone": 1490,
      "mail": 1491,
      "##ortant": 1492,
      "complet": 1493,
      "baby": 1494,
      "either": 1495,
      "mm": 1496,
      "##ibert": 1497,
      "##haps": 1498,
      "##mp": 1499,
      "lee": 1500,
      "##ott": 1501,
      "##utes": 1502,
      "seibert": 1503,
      "##ames": 1504,
      "##ili": 1505,
      "girls": 1506,
      "intern": 1507,
      "perhaps": 1508,
      "important": 1509,
      "trek": 1510,
      "##ertain": 1511,
      "coffee": 1512,
      "hmm": 1513,
      "mus": 1514,
      "pain": 1515,
      "tried": 1516,
      "##te": 1517,
      "less": 1518,
      "##othes": 1519,
      "##key": 1520,
      "del": 1521,
      "saw": 1522,
      "entire": 1523,
      "bi": 1524,
      "fut": 1525,
      "mad": 1526,
      "##od": 1527,
      "##ote": 1528,
      "story": 1529,
      "stair": 1530,
      "forg": 1531,
      "##uring": 1532,
      "##ung": 1533,
      "##iful": 1534,
      "flo": 1535,
      "ball": 1536,
      "fall": 1537,
      "gent": 1538,
      "pie": 1539,
      "tri": 1540,
      "val": 1541,
      "##ron": 1542,
      "##ying": 1543,
      "##ps": 1544,
      "##ared": 1545,
      "tot": 1546,
      "##iness": 1547,
      "##ative": 1548,
      "##itc": 1549,
      "##verse": 1550,
      "asking": 1551,
      "abs": 1552,
      "alone": 1553,
      "times": 1554,
      "throw": 1555,
      "agreement": 1556,
      "suggest": 1557,
      "bathroom": 1558,
      "##iddle": 1559,
      "building": 1560,
      "machine": 1561,
      "learn": 1562,
      "certain": 1563,
      "foot": 1564,
      "favor": 1565,
      "hour": 1566,
      "##land": 1567,
      "##sy": 1568,
      "##ract": 1569,
      "##men": 1570,
      "##du": 1571,
      "##app": 1572,
      "##ount": 1573,
      "##eric": 1574,
      "##iting": 1575,
      "##ised": 1576,
      "reali": 1577,
      "##urr": 1578,
      "##amed": 1579,
      "##ield": 1580,
      "##ists": 1581,
      "offer": 1582,
      "close": 1583,
      "india": 1584,
      "elect": 1585,
      "terrif": 1586,
      "follow": 1587,
      "tomorrow": 1588,
      "beautiful": 1589,
      "gentle": 1590,
      "cute": 1591,
      "fight": 1592,
      "gone": 1593,
      "tv": 1594,
      "##min": 1595,
      "##bar": 1596,
      "hall": 1597,
      "##outh": 1598,
      "convers": 1599,
      "everybody": 1600,
      "job": 1601,
      "asked": 1602,
      "glad": 1603,
      "minute": 1604,
      "future": 1605,
      "bird": 1606,
      "las": 1607,
      "##stem": 1608,
      "haw": 1609,
      "##irth": 1610,
      "social": 1611,
      "##amp": 1612,
      "tech": 1613,
      "change": 1614,
      "prop": 1615,
      "ago": 1616,
      "smell": 1617,
      "waitress": 1618,
      "sometim": 1619,
      "speak": 1620,
      "based": 1621,
      "##ency": 1622,
      "robot": 1623,
      "col": 1624,
      "kitt": 1625,
      "med": 1626,
      "middle": 1627,
      "pat": 1628,
      "sitting": 1629,
      "##uth": 1630,
      "##ution": 1631,
      "exam": 1632,
      "chang": 1633,
      "chance": 1634,
      "death": 1635,
      "loc": 1636,
      "obv": 1637,
      "system": 1638,
      "upset": 1639,
      "av": 1640,
      "full": 1641,
      "lim": 1642,
      "mot": 1643,
      "opp": 1644,
      "pict": 1645,
      "##ior": 1646,
      "##ob": 1647,
      "##hen": 1648,
      "##head": 1649,
      "##hers": 1650,
      "##inc": 1651,
      "##ane": 1652,
      "##ished": 1653,
      "ref": 1654,
      "##uter": 1655,
      "dead": 1656,
      "telling": 1657,
      "small": 1658,
      "hofstadter": 1659,
      "started": 1660,
      "slow": 1661,
      "hands": 1662,
      "clean": 1663,
      "record": 1664,
      "given": 1665,
      "engine": 1666,
      "sweetie": 1667,
      "12": 1668,
      "dating": 1669,
      "eff": 1670,
      "fire": 1671,
      "jew": 1672,
      "lord": 1673,
      "pants": 1674,
      "##mi": 1675,
      "##ket": 1676,
      "americ": 1677,
      "##aught": 1678,
      "spot": 1679,
      "##ational": 1680,
      "couldn": 1681,
      "trou": 1682,
      "##most": 1683,
      "policeman": 1684,
      "air": 1685,
      "birth": 1686,
      "earth": 1687,
      "nort": 1688,
      "power": 1689,
      "sad": 1690,
      "##ng": 1691,
      "##hat": 1692,
      "##het": 1693,
      "least": 1694,
      "##icul": 1695,
      "##acter": 1696,
      "short": 1697,
      "mod": 1698,
      "using": 1699,
      "sort": 1700,
      "grow": 1701,
      "grand": 1702,
      "spec": 1703,
      "minutes": 1704,
      "profess": 1705,
      "apologize": 1706,
      "wedding": 1707,
      "picture": 1708,
      "mouth": 1709,
      "ori": 1710,
      "ten": 1711,
      "ur": 1712,
      "##med": 1713,
      "##aw": 1714,
      "##aur": 1715,
      "##oud": 1716,
      "##esh": 1717,
      "##ask": 1718,
      "##ided": 1719,
      "suck": 1720,
      "shirt": 1721,
      "cond": 1722,
      "joy": 1723,
      "computer": 1724,
      "explain": 1725,
      "##wheaton": 1726,
      "lucky": 1727,
      "30": 1728,
      "cal": 1729,
      "dre": 1730,
      "gift": 1731,
      "kate": 1732,
      "lar": 1733,
      "mil": 1734,
      "mess": 1735,
      "ner": 1736,
      "pop": 1737,
      "##ale": 1738,
      "##aving": 1739,
      "##ering": 1740,
      "stre": 1741,
      "##aste": 1742,
      "##aster": 1743,
      "shut": 1744,
      "willwheaton": 1745,
      "needs": 1746,
      "group": 1747,
      "physic": 1748,
      "kitty": 1749,
      "dra": 1750,
      "lady": 1751,
      "occ": 1752,
      "##ug": 1753,
      "##me": 1754,
      "##ats": 1755,
      "weird": 1756,
      "lives": 1757,
      "tex": 1758,
      "seems": 1759,
      "appar": 1760,
      "accept": 1761,
      "restaur": 1762,
      "department": 1763,
      "conversation": 1764,
      "techn": 1765,
      "cu": 1766,
      "jud": 1767,
      "##line": 1768,
      "##hol": 1769,
      "##ren": 1770,
      "##bb": 1771,
      "radi": 1772,
      "##stro": 1773,
      "##ital": 1774,
      "choice": 1775,
      "lost": 1776,
      "##aseball": 1777,
      "trick": 1778,
      "appro": 1779,
      "contro": 1780,
      "longer": 1781,
      "gener": 1782,
      "law": 1783,
      "months": 1784,
      "father": 1785,
      "##guy": 1786,
      "terrific": 1787,
      "north": 1788,
      "dm": 1789,
      "eight": 1790,
      "hor": 1791,
      "sick": 1792,
      "lead": 1793,
      "##owler": 1794,
      "##lev": 1795,
      "##raid": 1796,
      "able": 1797,
      "spent": 1798,
      "conv": 1799,
      "##iled": 1800,
      "prot": 1801,
      "imag": 1802,
      "joke": 1803,
      "afraid": 1804,
      "married": 1805,
      "universe": 1806,
      "correct": 1807,
      "screw": 1808,
      "christie": 1809,
      "behind": 1810,
      "dmv": 1811,
      "mich": 1812,
      "pull": 1813,
      "son": 1814,
      "sent": 1815,
      "table": 1816,
      "##ier": 1817,
      "##igh": 1818,
      "##ai": 1819,
      "level": 1820,
      "theory": 1821,
      "state": 1822,
      "meant": 1823,
      "##aus": 1824,
      "alth": 1825,
      "alco": 1826,
      "roll": 1827,
      "blow": 1828,
      "black": 1829,
      "warm": 1830,
      "busy": 1831,
      "##where": 1832,
      "trouble": 1833,
      "origin": 1834,
      "although": 1835,
      "alcohol": 1836,
      "20": 1837,
      "ahead": 1838,
      "ed": 1839,
      "mass": 1840,
      "pu": 1841,
      "##gan": 1842,
      "##oon": 1843,
      "##ins": 1844,
      "amazing": 1845,
      "form": 1846,
      "suit": 1847,
      "##ending": 1848,
      "chin": 1849,
      "alice": 1850,
      "fell": 1851,
      "prep": 1852,
      "##ocol": 1853,
      "shoes": 1854,
      "capt": 1855,
      "19": 1856,
      "cous": 1857,
      "eating": 1858,
      "non": 1859,
      "wish": 1860,
      "##ken": 1861,
      "##cake": 1862,
      "##ones": 1863,
      "leaving": 1864,
      "##inb": 1865,
      "rajesh": 1866,
      "thre": 1867,
      "inside": 1868,
      "stick": 1869,
      "##urity": 1870,
      "seeing": 1871,
      "trust": 1872,
      "bud": 1873,
      "brought": 1874,
      "special": 1875,
      "##cuss": 1876,
      "sexual": 1877,
      "shower": 1878,
      "seriously": 1879,
      "##ception": 1880,
      "present": 1881,
      "cheesecake": 1882,
      "gentlemen": 1883,
      "bag": 1884,
      "cir": 1885,
      "cry": 1886,
      "die": 1887,
      "gee": 1888,
      "mine": 1889,
      "##ues": 1890,
      "##lo": 1891,
      "##sp": 1892,
      "##ru": 1893,
      "##ael": 1894,
      "##ced": 1895,
      "##ero": 1896,
      "ran": 1897,
      "ange": 1898,
      "lie": 1899,
      "##pper": 1900,
      "##ump": 1901,
      "intell": 1902,
      "assum": 1903,
      "guyinb": 1904,
      "glass": 1905,
      "questions": 1906,
      "secondguy": 1907,
      "crap": 1908,
      "expect": 1909,
      "bowl": 1910,
      "eye": 1911,
      "possib": 1912,
      "character": 1913,
      "obviously": 1914,
      "birthday": 1915,
      "##iculous": 1916,
      "##aseballhat": 1917,
      "michael": 1918,
      "guyinbaseballhat": 1919,
      "15": 1920,
      "cap": 1921,
      "cross": 1922,
      "field": 1923,
      "har": 1924,
      "ice": 1925,
      "takes": 1926,
      "wind": 1927,
      "##rass": 1928,
      "##cle": 1929,
      "##que": 1930,
      "##zz": 1931,
      "todd": 1932,
      "##oms": 1933,
      "shall": 1934,
      "##illy": 1935,
      "moon": 1936,
      "exc": 1937,
      "along": 1938,
      "almost": 1939,
      "##unity": 1940,
      "green": 1941,
      "##ection": 1942,
      "##ized": 1943,
      "clothes": 1944,
      "security": 1945,
      "feelings": 1946,
      "days": 1947,
      "key": 1948,
      "design": 1949,
      "giant": 1950,
      "ridiculous": 1951,
      "totally": 1952,
      "absol": 1953,
      "hawking": 1954,
      "professor": 1955,
      "texas": 1956,
      "apparently": 1957,
      "restaurant": 1958,
      "bott": 1959,
      "fore": 1960,
      "fix": 1961,
      "low": 1962,
      "lak": 1963,
      "latham": 1964,
      "pan": 1965,
      "vis": 1966,
      "wine": 1967,
      "##tern": 1968,
      "##eal": 1969,
      "##more": 1970,
      "##bs": 1971,
      "leg": 1972,
      "##ena": 1973,
      "##iny": 1974,
      "young": 1975,
      "rat": 1976,
      "##etic": 1977,
      "##ork": 1978,
      "##ism": 1979,
      "stri": 1980,
      "soft": 1981,
      "share": 1982,
      "##ault": 1983,
      "drunk": 1984,
      "plus": 1985,
      "los": 1986,
      "##aked": 1987,
      "##anger": 1988,
      "emerg": 1989,
      "embar": 1990,
      "flash": 1991,
      "disco": 1992,
      "against": 1993,
      "feeling": 1994,
      "business": 1995,
      "magic": 1996,
      "broke": 1997,
      "colle": 1998,
      "##ropri": 1999,
      "easy": 2000,
      "completely": 2001,
      "sometimes": 2002,
      "katee": 2003,
      "absolute": 2004,
      "embarrass": 2005,
      "cop": 2006,
      "dark": 2007,
      "fac": 2008,
      "hom": 2009,
      "hyp": 2010,
      "squ": 2011,
      "sense": 2012,
      "##oint": 2013,
      "##mit": 2014,
      "##inary": 2015,
      "##atul": 2016,
      "##oring": 2017,
      "knew": 2018,
      "exce": 2019,
      "whoa": 2020,
      "usually": 2021,
      "boys": 2022,
      "agre": 2023,
      "cover": 2024,
      "works": 2025,
      "blond": 2026,
      "emot": 2027,
      "##shmi": 2028,
      "join": 2029,
      "couch": 2030,
      "laund": 2031,
      "suppose": 2032,
      "sleeping": 2033,
      "giving": 2034,
      "catch": 2035,
      "running": 2036,
      "simple": 2037,
      "satur": 2038,
      "floor": 2039,
      "laser": 2040,
      "milk": 2041,
      "cousin": 2042,
      "michaela": 2043,
      "lakshmi": 2044,
      "cy": 2045,
      "fowler": 2046,
      "hung": 2047,
      "mist": 2048,
      "psy": 2049,
      "sau": 2050,
      "sand": 2051,
      "vide": 2052,
      "wer": 2053,
      "zero": 2054,
      "##uct": 2055,
      "##und": 2056,
      "##lic": 2057,
      "##oke": 2058,
      "##ray": 2059,
      "##oun": 2060,
      "thurs": 2061,
      "##ety": 2062,
      "inste": 2063,
      "##oof": 2064,
      "##rah": 2065,
      "##rap": 2066,
      "knows": 2067,
      "text": 2068,
      "anymore": 2069,
      "##els": 2070,
      "press": 2071,
      "##aged": 2072,
      "calling": 2073,
      "discuss": 2074,
      "##ired": 2075,
      "factory": 2076,
      "words": 2077,
      "children": 2078,
      "classic": 2079,
      "surprise": 2080,
      "costume": 2081,
      "laundry": 2082,
      "saturday": 2083,
      "psych": 2084,
      "video": 2085,
      "weren": 2086,
      "thursday": 2087,
      "instead": 2088,
      "astr": 2089,
      "bought": 2090,
      "cook": 2091,
      "det": 2092,
      "danc": 2093,
      "hon": 2094,
      "hurt": 2095,
      "mill": 2096,
      "none": 2097,
      "naked": 2098,
      "opt": 2099,
      "sal": 2100,
      "sir": 2101,
      "tatt": 2102,
      "##oid": 2103,
      "##bur": 2104,
      "touch": 2105,
      "shelly": 2106,
      "though": 2107,
      "third": 2108,
      "##itch": 2109,
      "anim": 2110,
      "online": 2111,
      "##idence": 2112,
      "cann": 2113,
      "prize": 2114,
      "tea": 2115,
      "chair": 2116,
      "dev": 2117,
      "anybody": 2118,
      "unless": 2119,
      "poor": 2120,
      "friendship": 2121,
      "buck": 2122,
      "disapp": 2123,
      "quite": 2124,
      "turns": 2125,
      "string": 2126,
      "enters": 2127,
      "gotta": 2128,
      "return": 2129,
      "physicist": 2130,
      "##ropriate": 2131,
      "agreed": 2132,
      "blonde": 2133,
      "astron": 2134,
      "curr": 2135,
      "fish": 2136,
      "fail": 2137,
      "lad": 2138,
      "size": 2139,
      "typ": 2140,
      "##ius": 2141,
      "##gn": 2142,
      "##oss": 2143,
      "##yn": 2144,
      "##pin": 2145,
      "##ines": 2146,
      "white": 2147,
      "reception": 2148,
      "sto": 2149,
      "station": 2150,
      "##rib": 2151,
      "dogs": 2152,
      "##ented": 2153,
      "yours": 2154,
      "##ury": 2155,
      "neigh": 2156,
      "shoot": 2157,
      "##umb": 2158,
      "congr": 2159,
      "pos": 2160,
      "##aken": 2161,
      "support": 2162,
      "movies": 2163,
      "experi": 2164,
      "watching": 2165,
      "eyes": 2166,
      "inform": 2167,
      "dream": 2168,
      "chinese": 2169,
      "emergency": 2170,
      "tattoo": 2171,
      "neighb": 2172,
      "congratul": 2173,
      "cult": 2174,
      "egg": 2175,
      "fing": 2176,
      "fro": 2177,
      "hate": 2178,
      "pal": 2179,
      "rom": 2180,
      "sett": 2181,
      "soup": 2182,
      "tur": 2183,
      "tree": 2184,
      "vi": 2185,
      "##ef": 2186,
      "##book": 2187,
      "town": 2188,
      "leo": 2189,
      "##lli": 2190,
      "##uts": 2191,
      "dog": 2192,
      "list": 2193,
      "neur": 2194,
      "##ills": 2195,
      "##unt": 2196,
      "##ope": 2197,
      "comfortable": 2198,
      "##used": 2199,
      "art": 2200,
      "##ptop": 2201,
      "waiting": 2202,
      "##well": 2203,
      "pract": 2204,
      "##empt": 2205,
      "barber": 2206,
      "crus": 2207,
      "kids": 2208,
      "company": 2209,
      "object": 2210,
      "interested": 2211,
      "books": 2212,
      "invol": 2213,
      "laptop": 2214,
      "reading": 2215,
      "event": 2216,
      "regular": 2217,
      "incre": 2218,
      "knocks": 2219,
      "##ney": 2220,
      "batman": 2221,
      "example": 2222,
      "curi": 2223,
      "buddy": 2224,
      "ce": 2225,
      "cri": 2226,
      "cup": 2227,
      "fly": 2228,
      "fault": 2229,
      "hy": 2230,
      "hook": 2231,
      "pub": 2232,
      "sie": 2233,
      "wall": 2234,
      "##ient": 2235,
      "##pe": 2236,
      "##craw": 2237,
      "##bel": 2238,
      "##eng": 2239,
      "##anie": 2240,
      "##res": 2241,
      "##stit": 2242,
      "##ities": 2243,
      "##asm": 2244,
      "##asc": 2245,
      "##asure": 2246,
      "##ural": 2247,
      "whose": 2248,
      "##ments": 2249,
      "##icket": 2250,
      "cold": 2251,
      "arm": 2252,
      "##pton": 2253,
      "brother": 2254,
      "appre": 2255,
      "quant": 2256,
      "relax": 2257,
      "accident": 2258,
      "weekend": 2259,
      "sarc": 2260,
      "terrible": 2261,
      "respect": 2262,
      "clearly": 2263,
      "gotten": 2264,
      "friday": 2265,
      "certainly": 2266,
      "realize": 2267,
      "original": 2268,
      "discover": 2269,
      "absolutely": 2270,
      "batt": 2271,
      "during": 2272,
      "est": 2273,
      "hos": 2274,
      "idi": 2275,
      "ju": 2276,
      "jer": 2277,
      "mis": 2278,
      "nap": 2279,
      "##lady": 2280,
      "##ten": 2281,
      "##con": 2282,
      "##ered": 2283,
      "##itus": 2284,
      "##itive": 2285,
      "ant": 2286,
      "ann": 2287,
      "##adena": 2288,
      "begin": 2289,
      "##oose": 2290,
      "seven": 2291,
      "necess": 2292,
      "butt": 2293,
      "suc": 2294,
      "study": 2295,
      "##ilt": 2296,
      "##akei": 2297,
      "priv": 2298,
      "except": 2299,
      "##ately": 2300,
      "common": 2301,
      "plans": 2302,
      "lock": 2303,
      "board": 2304,
      "fema": 2305,
      "##izz": 2306,
      "truth": 2307,
      "putting": 2308,
      "##getakei": 2309,
      "result": 2310,
      "happens": 2311,
      "impress": 2312,
      "craw": 2313,
      "holding": 2314,
      "creep": 2315,
      "difference": 2316,
      "brilli": 2317,
      "broken": 2318,
      "double": 2319,
      "uncom": 2320,
      "georgetakei": 2321,
      "##iliar": 2322,
      "music": 2323,
      "stairs": 2324,
      "effect": 2325,
      "jewish": 2326,
      "dmvlady": 2327,
      "cannot": 2328,
      "astronaut": 2329,
      "boo": 2330,
      "bra": 2331,
      "city": 2332,
      "cell": 2333,
      "dro": 2334,
      "fi": 2335,
      "lone": 2336,
      "mars": 2337,
      "sack": 2338,
      "ya": 2339,
      "##uation": 2340,
      "##ipped": 2341,
      "##gre": 2342,
      "##mat": 2343,
      "##dent": 2344,
      "refer": 2345,
      "stat": 2346,
      "iss": 2347,
      "doll": 2348,
      "allow": 2349,
      "tem": 2350,
      "##inkle": 2351,
      "himself": 2352,
      "##ffic": 2353,
      "sciss": 2354,
      "intro": 2355,
      "coitus": 2356,
      "acting": 2357,
      "actress": 2358,
      "##iles": 2359,
      "remind": 2360,
      "series": 2361,
      "driving": 2362,
      "##iction": 2363,
      "##ully": 2364,
      "hoping": 2365,
      "planet": 2366,
      "profcraw": 2367,
      "bitch": 2368,
      "subject": 2369,
      "decided": 2370,
      "wonderful": 2371,
      "farrah": 2372,
      "screen": 2373,
      "extra": 2374,
      "football": 2375,
      "changed": 2376,
      "large": 2377,
      "street": 2378,
      "control": 2379,
      "receptionist": 2380,
      "congratulations": 2381,
      "appreci": 2382,
      "uncomfortable": 2383,
      "profcrawley": 2384,
      "11": 2385,
      "aff": 2386,
      "bac": 2387,
      "dir": 2388,
      "fast": 2389,
      "gas": 2390,
      "kick": 2391,
      "lunch": 2392,
      "pas": 2393,
      "pur": 2394,
      "sil": 2395,
      "tall": 2396,
      "##ike": 2397,
      "##ove": 2398,
      "##son": 2399,
      "##ming": 2400,
      "##ises": 2401,
      "repl": 2402,
      "##sel": 2403,
      "##urry": 2404,
      "soon": 2405,
      "##iew": 2406,
      "butter": 2407,
      "worse": 2408,
      "prov": 2409,
      "pee": 2410,
      "carry": 2411,
      "##ife": 2412,
      "phot": 2413,
      "flag": 2414,
      "proud": 2415,
      "assume": 2416,
      "quick": 2417,
      "contact": 2418,
      "pretend": 2419,
      "desk": 2420,
      "listening": 2421,
      "halo": 2422,
      "corn": 2423,
      "wondering": 2424,
      "brid": 2425,
      "incl": 2426,
      "possible": 2427,
      "scientific": 2428,
      "early": 2429,
      "opport": 2430,
      "dancing": 2431,
      "disappoint": 2432,
      "siebert": 2433,
      "female": 2434,
      "scissors": 2435,
      "pasadena": 2436,
      "ba": 2437,
      "dry": 2438,
      "er": 2439,
      "ep": 2440,
      "games": 2441,
      "mu": 2442,
      "mention": 2443,
      "named": 2444,
      "ride": 2445,
      "tro": 2446,
      "wild": 2447,
      "waste": 2448,
      "##rom": 2449,
      "##ked": 2450,
      "##fast": 2451,
      "rather": 2452,
      "##ison": 2453,
      "##oop": 2454,
      "##acy": 2455,
      "sell": 2456,
      "##roat": 2457,
      "##aming": 2458,
      "frank": 2459,
      "letter": 2460,
      "project": 2461,
      "##action": 2462,
      "worked": 2463,
      "action": 2464,
      "activ": 2465,
      "across": 2466,
      "stephanie": 2467,
      "##ologist": 2468,
      "hanging": 2469,
      "attention": 2470,
      "attract": 2471,
      "cream": 2472,
      "genius": 2473,
      "respons": 2474,
      "george": 2475,
      "internet": 2476,
      "paint": 2477,
      "mistake": 2478,
      "sauce": 2479,
      "ladies": 2480,
      "quantum": 2481,
      "brilliant": 2482,
      "10": 2483,
      "14": 2484,
      "18": 2485,
      "cam": 2486,
      "eric": 2487,
      "fill": 2488,
      "kim": 2489,
      "rich": 2490,
      "sens": 2491,
      "taken": 2492,
      "vac": 2493,
      "##hood": 2494,
      "##sc": 2495,
      "##ks": 2496,
      "##cking": 2497,
      "##aring": 2498,
      "##ench": 2499,
      "##icated": 2500,
      "##ality": 2501,
      "##ides": 2502,
      "nobel": 2503,
      "seat": 2504,
      "neither": 2505,
      "stuck": 2506,
      "moved": 2507,
      "chocol": 2508,
      "destro": 2509,
      "conn": 2510,
      "seem": 2511,
      "##ulate": 2512,
      "##aint": 2513,
      "##ploy": 2514,
      "bull": 2515,
      "##ified": 2516,
      "##ages": 2517,
      "died": 2518,
      "grad": 2519,
      "flat": 2520,
      "disc": 2521,
      "interc": 2522,
      "speed": 2523,
      "court": 2524,
      "betray": 2525,
      "turned": 2526,
      "finish": 2527,
      "strong": 2528,
      "##ancy": 2529,
      "##hoff": 2530,
      "country": 2531,
      "grav": 2532,
      "concern": 2533,
      "##levision": 2534,
      "excell": 2535,
      "battle": 2536,
      "dirty": 2537,
      "dent": 2538,
      "hist": 2539,
      "land": 2540,
      "mer": 2541,
      "marth": 2542,
      "nine": 2543,
      "rent": 2544,
      "round": 2545,
      "send": 2546,
      "trip": 2547,
      "##io": 2548,
      "##lish": 2549,
      "##ring": 2550,
      "##kin": 2551,
      "##ched": 2552,
      "##fully": 2553,
      "##zard": 2554,
      "toast": 2555,
      "toil": 2556,
      "##ino": 2557,
      "##inite": 2558,
      "##inating": 2559,
      "throat": 2560,
      "often": 2561,
      "##ices": 2562,
      "##ached": 2563,
      "##ential": 2564,
      "forward": 2565,
      "##rog": 2566,
      "##astic": 2567,
      "shop": 2568,
      "yep": 2569,
      "chat": 2570,
      "thinks": 2571,
      "ord": 2572,
      "organ": 2573,
      "lose": 2574,
      "post": 2575,
      "arg": 2576,
      "arr": 2577,
      "##ify": 2578,
      "actual": 2579,
      "appropriate": 2580,
      "speaking": 2581,
      "qui": 2582,
      "remark": 2583,
      "cricket": 2584,
      "glenn": 2585,
      "seconds": 2586,
      "serv": 2587,
      "serious": 2588,
      "##ocking": 2589,
      "attempt": 2590,
      "desc": 2591,
      "accom": 2592,
      "##ails": 2593,
      "familiar": 2594,
      "scientist": 2595,
      "perfectly": 2596,
      "favorite": 2597,
      "captain": 2598,
      "neighbor": 2599,
      "sarcasm": 2600,
      "hosp": 2601,
      "opportunity": 2602,
      "excellent": 2603,
      "martha": 2604,
      "bur": 2605,
      "hat": 2606,
      "hoo": 2607,
      "hone": 2608,
      "jack": 2609,
      "jeal": 2610,
      "kitc": 2611,
      "lant": 2612,
      "pizz": 2613,
      "##ipp": 2614,
      "##hy": 2615,
      "##rd": 2616,
      "##port": 2617,
      "##mas": 2618,
      "##bi": 2619,
      "##bt": 2620,
      "##bing": 2621,
      "##feter": 2622,
      "tor": 2623,
      "##ination": 2624,
      "##ime": 2625,
      "##ram": 2626,
      "##oler": 2627,
      "sun": 2628,
      "spin": 2629,
      "##ument": 2630,
      "comfort": 2631,
      "prog": 2632,
      "somebody": 2633,
      "prefer": 2634,
      "##ourse": 2635,
      "safe": 2636,
      "shouldn": 2637,
      "##ague": 2638,
      "blood": 2639,
      "brown": 2640,
      "ground": 2641,
      "starting": 2642,
      "##board": 2643,
      "sweat": 2644,
      "match": 2645,
      "obser": 2646,
      "meeting": 2647,
      "express": 2648,
      "facebook": 2649,
      "magn": 2650,
      "ruin": 2651,
      "cafeter": 2652,
      "travel": 2653,
      "stairwell": 2654,
      "forgot": 2655,
      "model": 2656,
      "message": 2657,
      "nerd": 2658,
      "college": 2659,
      "hungry": 2660,
      "blondegirl": 2661,
      "cele": 2662,
      "lonely": 2663,
      "appreciate": 2664,
      "chocolate": 2665,
      "intercourse": 2666,
      "toilet": 2667,
      "jealous": 2668,
      "kitchen": 2669,
      "cafeteria": 2670,
      "200": 2671,
      "band": 2672,
      "bother": 2673,
      "bunch": 2674,
      "da": 2675,
      "draw": 2676,
      "fa": 2677,
      "ill": 2678,
      "sd": 2679,
      "##ging": 2680,
      "##af": 2681,
      "##bers": 2682,
      "##arm": 2683,
      "##ston": 2684,
      "##isf": 2685,
      "##ising": 2686,
      "##ids": 2687,
      "nobody": 2688,
      "soci": 2689,
      "wash": 2690,
      "deep": 2691,
      "feet": 2692,
      "offic": 2693,
      "pole": 2694,
      "arri": 2695,
      "nights": 2696,
      "cares": 2697,
      "blue": 2698,
      "sexy": 2699,
      "##ological": 2700,
      "helping": 2701,
      "handle": 2702,
      "slept": 2703,
      "hotgirl": 2704,
      "career": 2705,
      "problems": 2706,
      "invited": 2707,
      "situation": 2708,
      "paid": 2709,
      "treat": 2710,
      "weeks": 2711,
      "christmas": 2712,
      "singing": 2713,
      "steve": 2714,
      "concl": 2715,
      "fighting": 2716,
      "judge": 2717,
      "imagine": 2718,
      "creepy": 2719,
      "destroy": 2720,
      "hospital": 2721,
      "honest": 2722,
      "lantern": 2723,
      "pizza": 2724,
      "sdad": 2725,
      "17": 2726,
      "ber": 2727,
      "ban": 2728,
      "boot": 2729,
      "cow": 2730,
      "dat": 2731,
      "dig": 2732,
      "dance": 2733,
      "fan": 2734,
      "fra": 2735,
      "fel": 2736,
      "foc": 2737,
      "fasc": 2738,
      "ger": 2739,
      "gay": 2740,
      "ir": 2741,
      "mic": 2742,
      "mix": 2743,
      "ow": 2744,
      "odd": 2745,
      "pound": 2746,
      "rings": 2747,
      "tub": 2748,
      "tiny": 2749,
      "wes": 2750,
      "wars": 2751,
      "winkle": 2752,
      "##ox": 2753,
      "##oz": 2754,
      "##zed": 2755,
      "##ato": 2756,
      "##ites": 2757,
      "ang": 2758,
      "##omb": 2759,
      "##ader": 2760,
      "web": 2761,
      "west": 2762,
      "##ries": 2763,
      "##keys": 2764,
      "##aching": 2765,
      "force": 2766,
      "notice": 2767,
      "likes": 2768,
      "lizard": 2769,
      "##anted": 2770,
      "neck": 2771,
      "nebr": 2772,
      "##amb": 2773,
      "##chie": 2774,
      "exist": 2775,
      "deli": 2776,
      "comb": 2777,
      "##alif": 2778,
      "produ": 2779,
      "lob": 2780,
      "##izing": 2781,
      "calls": 2782,
      "##aph": 2783,
      "played": 2784,
      "appe": 2785,
      "appear": 2786,
      "##ocks": 2787,
      "queen": 2788,
      "contin": 2789,
      "contain": 2790,
      "impro": 2791,
      "attack": 2792,
      "sword": 2793,
      "##ledge": 2794,
      "skin": 2795,
      "breakfast": 2796,
      "000": 2797,
      "snow": 2798,
      "##wards": 2799,
      "scientists": 2800,
      "shopping": 2801,
      "considered": 2802,
      "dressed": 2803,
      "daddy": 2804,
      "fairly": 2805,
      "hallway": 2806,
      "american": 2807,
      "##aska": 2808,
      "radio": 2809,
      "##rupt": 2810,
      "angel": 2811,
      "intellig": 2812,
      "honor": 2813,
      "##burger": 2814,
      "stopped": 2815,
      "temper": 2816,
      "gravity": 2817,
      "celebr": 2818,
      "bond": 2819,
      "cake": 2820,
      "der": 2821,
      "fool": 2822,
      "gal": 2823,
      "gri": 2824,
      "hus": 2825,
      "ign": 2826,
      "jump": 2827,
      "nas": 2828,
      "pun": 2829,
      "roth": 2830,
      "silly": 2831,
      "wife": 2832,
      "##uel": 2833,
      "##ni": 2834,
      "##duc": 2835,
      "##kward": 2836,
      "##cul": 2837,
      "##wood": 2838,
      "##bon": 2839,
      "toy": 2840,
      "lect": 2841,
      "penis": 2842,
      "##ather": 2843,
      "##atory": 2844,
      "##itude": 2845,
      "beer": 2846,
      "beat": 2847,
      "beach": 2848,
      "stra": 2849,
      "knocking": 2850,
      "cand": 2851,
      "shame": 2852,
      "##ended": 2853,
      "teeth": 2854,
      "drinking": 2855,
      "const": 2856,
      "letting": 2857,
      "unli": 2858,
      "willing": 2859,
      "apology": 2860,
      "waiter": 2861,
      "##ape": 2862,
      "hole": 2863,
      "holy": 2864,
      "talked": 2865,
      "dise": 2866,
      "disp": 2867,
      "prin": 2868,
      "quart": 2869,
      "market": 2870,
      "heads": 2871,
      "picked": 2872,
      "##ailable": 2873,
      "aware": 2874,
      "awkward": 2875,
      "symp": 2876,
      "planning": 2877,
      "personal": 2878,
      "walking": 2879,
      "rocket": 2880,
      "freak": 2881,
      "century": 2882,
      "single": 2883,
      "##stein": 2884,
      "kissing": 2885,
      "piece": 2886,
      "following": 2887,
      "propose": 2888,
      "america": 2889,
      "occas": 2890,
      "assuming": 2891,
      "possibly": 2892,
      "designed": 2893,
      "emotional": 2894,
      "settle": 2895,
      "idiot": 2896,
      "troll": 2897,
      "wesley": 2898,
      "nebraska": 2899,
      "straight": 2900,
      "aut": 2901,
      "ein": 2902,
      "fur": 2903,
      "hind": 2904,
      "kore": 2905,
      "mmm": 2906,
      "mount": 2907,
      "master": 2908,
      "miles": 2909,
      "pet": 2910,
      "rub": 2911,
      "san": 2912,
      "ven": 2913,
      "wi": 2914,
      "wood": 2915,
      "##use": 2916,
      "##gi": 2917,
      "##ka": 2918,
      "##ker": 2919,
      "##cy": 2920,
      "##ches": 2921,
      "##wich": 2922,
      "##band": 2923,
      "##11": 2924,
      "##ories": 2925,
      "init": 2926,
      "inde": 2927,
      "##icking": 2928,
      "##ased": 2929,
      "##antic": 2930,
      "##raph": 2931,
      "yell": 2932,
      "choose": 2933,
      "spir": 2934,
      "alive": 2935,
      "guard": 2936,
      "worst": 2937,
      "##using": 2938,
      "##usion": 2939,
      "log": 2940,
      "male": 2941,
      "prev": 2942,
      "##orts": 2943,
      "hadn": 2944,
      "meaning": 2945,
      "trad": 2946,
      "##wear": 2947,
      "employ": 2948,
      "grown": 2949,
      "underwear": 2950,
      "function": 2951,
      "admit": 2952,
      "monkeys": 2953,
      "parad": 2954,
      "physical": 2955,
      "recently": 2956,
      "##itional": 2957,
      "cats": 2958,
      "expert": 2959,
      "warri": 2960,
      "engaged": 2961,
      "superman": 2962,
      "##ference": 2963,
      "regard": 2964,
      "elev": 2965,
      "president": 2966,
      "satisf": 2967,
      "dump": 2968,
      "dumpl": 2969,
      "surprised": 2970,
      "behav": 2971,
      "avoid": 2972,
      "##hetic": 2973,
      "convention": 2974,
      "sandwich": 2975,
      "experience": 2976,
      "##stitute": 2977,
      "necessary": 2978,
      "success": 2979,
      "##selves": 2980,
      "remarkable": 2981,
      "##ozni": 2982,
      "rothman": 2983,
      "unlike": 2984,
      "##ozniak": 2985,
      "au": 2986,
      "aqu": 2987,
      "burn": 2988,
      "caus": 2989,
      "fy": 2990,
      "fle": 2991,
      "fant": 2992,
      "kry": 2993,
      "lack": 2994,
      "mut": 2995,
      "mult": 2996,
      "mike": 2997,
      "net": 2998,
      "norm": 2999,
      "oper": 3000,
      "tight": 3001,
      "yog": 3002,
      "##ule": 3003,
      "##light": 3004,
      "##ged": 3005,
      "##par": 3006,
      "##do": 3007,
      "##dies": 3008,
      "##ces": 3009,
      "##work": 3010,
      "##bre": 3011,
      "##voice": 3012,
      "##ened": 3013,
      "##erland": 3014,
      "thous": 3015,
      "##anrd": 3016,
      "##esome": 3017,
      "##ishing": 3018,
      "requ": 3019,
      "##icious": 3020,
      "ham": 3021,
      "##irk": 3022,
      "area": 3023,
      "##ends": 3024,
      "##ender": 3025,
      "spider": 3026,
      "guest": 3027,
      "process": 3028,
      "##itzerland": 3029,
      "intim": 3030,
      "code": 3031,
      "##oret": 3032,
      "beverage": 3033,
      "chess": 3034,
      "spee": 3035,
      "aftern": 3036,
      "##lesc": 3037,
      "##airs": 3038,
      "switzerland": 3039,
      "access": 3040,
      "##ontv": 3041,
      "bringing": 3042,
      "explan": 3043,
      "magaz": 3044,
      "##lier": 3045,
      "topic": 3046,
      "doubt": 3047,
      "center": 3048,
      "insane": 3049,
      "solution": 3050,
      "promise": 3051,
      "promised": 3052,
      "##azinga": 3053,
      "delight": 3054,
      "general": 3055,
      "##load": 3056,
      "culture": 3057,
      "viol": 3058,
      "leoanrd": 3059,
      "incredi": 3060,
      "public": 3061,
      "quiet": 3062,
      "data": 3063,
      "fascinating": 3064,
      "appears": 3065,
      "husband": 3066,
      "lecture": 3067,
      "einstein": 3068,
      "fyi": 3069,
      "krypton": 3070,
      "thousand": 3071,
      "afternoon": 3072,
      "age": 3073,
      "bazinga": 3074,
      "cas": 3075,
      "du": 3076,
      "den": 3077,
      "danger": 3078,
      "east": 3079,
      "ess": 3080,
      "lit": 3081,
      "lying": 3082,
      "mood": 3083,
      "ot": 3084,
      "sou": 3085,
      "till": 3086,
      "##uce": 3087,
      "##ton": 3088,
      "##ges": 3089,
      "##ode": 3090,
      "##ey": 3091,
      "##ev": 3092,
      "##phe": 3093,
      "##cut": 3094,
      "##vern": 3095,
      "##vable": 3096,
      "##ouse": 3097,
      "rac": 3098,
      "thai": 3099,
      "##ann": 3100,
      "##itation": 3101,
      "anal": 3102,
      "##omm": 3103,
      "##alth": 3104,
      "##iding": 3105,
      "note": 3106,
      "nose": 3107,
      "nope": 3108,
      "known": 3109,
      "knowing": 3110,
      "mock": 3111,
      "teach": 3112,
      "##opo": 3113,
      "worth": 3114,
      "somewhere": 3115,
      "##yson": 3116,
      "enc": 3117,
      "##ipment": 3118,
      "club": 3119,
      "##ogn": 3120,
      "##ograph": 3121,
      "built": 3122,
      "dibs": 3123,
      "spell": 3124,
      "lovely": 3125,
      "##ires": 3126,
      "happening": 3127,
      "marry": 3128,
      "breaking": 3129,
      "swear": 3130,
      "decide": 3131,
      "##velop": 3132,
      "standing": 3133,
      "dumb": 3134,
      "forgive": 3135,
      "##duce": 3136,
      "colon": 3137,
      "available": 3138,
      "motor": 3139,
      "growing": 3140,
      "condition": 3141,
      "threw": 3142,
      "eggs": 3143,
      "purp": 3144,
      "dentist": 3145,
      "temperature": 3146,
      "nasa": 3147,
      "disease": 3148,
      "speech": 3149,
      "21": 3150,
      "50": 3151,
      "achie": 3152,
      "cust": 3153,
      "caught": 3154,
      "dim": 3155,
      "drop": 3156,
      "deter": 3157,
      "daught": 3158,
      "hig": 3159,
      "hurry": 3160,
      "kling": 3161,
      "mir": 3162,
      "mint": 3163,
      "nat": 3164,
      "nor": 3165,
      "path": 3166,
      "sake": 3167,
      "song": 3168,
      "sna": 3169,
      "wet": 3170,
      "##ugg": 3171,
      "##lor": 3172,
      "##lau": 3173,
      "##go": 3174,
      "##rot": 3175,
      "##ym": 3176,
      "##mrs": 3177,
      "##xual": 3178,
      "inst": 3179,
      "##iced": 3180,
      "##rid": 3181,
      "##rif": 3182,
      "meat": 3183,
      "##aces": 3184,
      "liqu": 3185,
      "section": 3186,
      "hero": 3187,
      "near": 3188,
      "##ama": 3189,
      "mrsmrs": 3190,
      "shh": 3191,
      "abby": 3192,
      "television": 3193,
      "##gestion": 3194,
      "develop": 3195,
      "drm": 3196,
      "french": 3197,
      "road": 3198,
      "##rapped": 3199,
      "fear": 3200,
      "pred": 3201,
      "clos": 3202,
      "become": 3203,
      "grade": 3204,
      "missing": 3205,
      "write": 3206,
      "mommy": 3207,
      "cris": 3208,
      "##penny": 3209,
      "monkey": 3210,
      "opening": 3211,
      "recogn": 3212,
      "swim": 3213,
      "switch": 3214,
      "cred": 3215,
      "create": 3216,
      "skills": 3217,
      "##ences": 3218,
      "rules": 3219,
      "bowling": 3220,
      "cards": 3221,
      "uncle": 3222,
      "particle": 3223,
      "particular": 3224,
      "equipment": 3225,
      "memory": 3226,
      "electric": 3227,
      "motion": 3228,
      "prepared": 3229,
      "circ": 3230,
      "visit": 3231,
      "pressure": 3232,
      "information": 3233,
      "estab": 3234,
      "crawley": 3235,
      "sackhoff": 3236,
      "dollars": 3237,
      "focus": 3238,
      "micro": 3239,
      "warrior": 3240,
      "klingon": 3241,
      "mrsmrswolowitz": 3242,
      "bun": 3243,
      "bone": 3244,
      "calif": 3245,
      "dates": 3246,
      "fed": 3247,
      "fil": 3248,
      "fancy": 3249,
      "gree": 3250,
      "gho": 3251,
      "ident": 3252,
      "lay": 3253,
      "lact": 3254,
      "lang": 3255,
      "mate": 3256,
      "math": 3257,
      "nature": 3258,
      "ol": 3259,
      "opin": 3260,
      "roof": 3261,
      "tong": 3262,
      "tired": 3263,
      "var": 3264,
      "wound": 3265,
      "##lished": 3266,
      "##gas": 3267,
      "##hi": 3268,
      "##oil": 3269,
      "##een": 3270,
      "##rase": 3271,
      "##mb": 3272,
      "##view": 3273,
      "howie": 3274,
      "ther": 3275,
      "theoret": 3276,
      "##stairs": 3277,
      "##itter": 3278,
      "##otic": 3279,
      "##leep": 3280,
      "##eday": 3281,
      "##oming": 3282,
      "##omic": 3283,
      "whis": 3284,
      "##icult": 3285,
      "stars": 3286,
      "##oog": 3287,
      "##ghlin": 3288,
      "heat": 3289,
      "goss": 3290,
      "fort": 3291,
      "##ppy": 3292,
      "##urb": 3293,
      "sock": 3294,
      "cance": 3295,
      "##amy": 3296,
      "asleep": 3297,
      "suff": 3298,
      "sudd": 3299,
      "shri": 3300,
      "wheel": 3301,
      "moves": 3302,
      "tele": 3303,
      "cho": 3304,
      "chuck": 3305,
      "drho": 3306,
      "##itten": 3307,
      "rover": 3308,
      "loved": 3309,
      "cock": 3310,
      "tells": 3311,
      "##ption": 3312,
      "##ored": 3313,
      "##ected": 3314,
      "clim": 3315,
      "twe": 3316,
      "someday": 3317,
      "bris": 3318,
      "##athy": 3319,
      "flight": 3320,
      "pray": 3321,
      "impl": 3322,
      "writing": 3323,
      "joh": 3324,
      "coun": 3325,
      "marri": 3326,
      "houston": 3327,
      "difficult": 3328,
      "award": 3329,
      "proflau": 3330,
      "signed": 3331,
      "##gging": 3332,
      "decision": 3333,
      "highly": 3334,
      "stands": 3335,
      "evol": 3336,
      "##struct": 3337,
      "regret": 3338,
      "##cient": 3339,
      "childhood": 3340,
      "##llywood": 3341,
      "figured": 3342,
      "doug": 3343,
      "fresh": 3344,
      "confused": 3345,
      "earlier": 3346,
      "enjoying": 3347,
      "advice": 3348,
      "##ornia": 3349,
      "member": 3350,
      "international": 3351,
      "color": 3352,
      "technically": 3353,
      "horse": 3354,
      "fellas": 3355,
      "circle": 3356,
      "intellect": 3357,
      "possibility": 3358,
      "bottle": 3359,
      "bottom": 3360,
      "hypothes": 3361,
      "bucks": 3362,
      "currently": 3363,
      "tattooist": 3364,
      "finger": 3365,
      "eventually": 3366,
      "issue": 3367,
      "service": 3368,
      "accompl": 3369,
      "felt": 3370,
      "angela": 3371,
      "princess": 3372,
      "occasion": 3373,
      "elevator": 3374,
      "california": 3375,
      "ghost": 3376,
      "lactose": 3377,
      "langu": 3378,
      "gossip": 3379,
      "drhofstadter": 3380,
      "proflaughlin": 3381,
      "16": 3382,
      "auth": 3383,
      "bes": 3384,
      "base": 3385,
      "dar": 3386,
      "elf": 3387,
      "gun": 3388,
      "jour": 3389,
      "lat": 3390,
      "lower": 3391,
      "mum": 3392,
      "pure": 3393,
      "port": 3394,
      "pap": 3395,
      "patt": 3396,
      "ri": 3397,
      "site": 3398,
      "task": 3399,
      "wol": 3400,
      "wand": 3401,
      "##ls": 3402,
      "##lon": 3403,
      "##lord": 3404,
      "##to": 3405,
      "##ov": 3406,
      "##ror": 3407,
      "##ply": 3408,
      "##mer": 3409,
      "##cious": 3410,
      "##cise": 3411,
      "touc": 3412,
      "##inate": 3413,
      "##ana": 3414,
      "##omp": 3415,
      "rein": 3416,
      "reached": 3417,
      "##ica": 3418,
      "##icle": 3419,
      "##icate": 3420,
      "weap": 3421,
      "##asant": 3422,
      "bear": 3423,
      "forb": 3424,
      "liked": 3425,
      "seats": 3426,
      "knowledge": 3427,
      "allerg": 3428,
      "##abber": 3429,
      "shift": 3430,
      "above": 3431,
      "##ceed": 3432,
      "##ilar": 3433,
      "mole": 3434,
      "chur": 3435,
      "##cket": 3436,
      "alert": 3437,
      "demon": 3438,
      "degre": 3439,
      "worried": 3440,
      "comment": 3441,
      "drug": 3442,
      "goth": 3443,
      "scene": 3444,
      "intoler": 3445,
      "pean": 3446,
      "save": 3447,
      "clar": 3448,
      "##play": 3449,
      "buzz": 3450,
      "blu": 3451,
      "brents": 3452,
      "div": 3453,
      "missed": 3454,
      "written": 3455,
      "starts": 3456,
      "quest": 3457,
      "##ording": 3458,
      "##pens": 3459,
      "sweater": 3460,
      "clever": 3461,
      "hug": 3462,
      "compet": 3463,
      "invented": 3464,
      "termin": 3465,
      "awesome": 3466,
      "standard": 3467,
      "answers": 3468,
      "metaph": 3469,
      "winter": 3470,
      "winner": 3471,
      "lights": 3472,
      "smarter": 3473,
      "address": 3474,
      "definite": 3475,
      "experimental": 3476,
      "distance": 3477,
      "potential": 3478,
      "advant": 3479,
      "complete": 3480,
      "painting": 3481,
      "suggesting": 3482,
      "pathetic": 3483,
      "##obi": 3484,
      "specific": 3485,
      "drag": 3486,
      "accepted": 3487,
      "crying": 3488,
      "current": 3489,
      "##piner": 3490,
      "romantic": 3491,
      "turning": 3492,
      "curious": 3493,
      "impressive": 3494,
      "status": 3495,
      "replace": 3496,
      "epis": 3497,
      "frankly": 3498,
      "activity": 3499,
      "concerned": 3500,
      "ordinary": 3501,
      "constant": 3502,
      "indeed": 3503,
      "yogurt": 3504,
      "custom": 3505,
      "credit": 3506,
      "tongue": 3507,
      "theoretical": 3508,
      "sudden": 3509,
      "pattern": 3510,
      "degrees": 3511,
      "brentspiner": 3512,
      "definitely": 3513,
      "25": 3514,
      "aunt": 3515,
      "bong": 3516,
      "bite": 3517,
      "boun": 3518,
      "cart": 3519,
      "camp": 3520,
      "dying": 3521,
      "gor": 3522,
      "jar": 3523,
      "jes": 3524,
      "kite": 3525,
      "lic": 3526,
      "loud": 3527,
      "lamb": 3528,
      "mid": 3529,
      "nuts": 3530,
      "pill": 3531,
      "pair": 3532,
      "push": 3533,
      "sour": 3534,
      "tun": 3535,
      "tick": 3536,
      "tank": 3537,
      "tax": 3538,
      "vict": 3539,
      "wast": 3540,
      "##uit": 3541,
      "##uate": 3542,
      "##ially": 3543,
      "##tain": 3544,
      "##of": 3545,
      "##ext": 3546,
      "##por": 3547,
      "##cer": 3548,
      "##wise": 3549,
      "##zen": 3550,
      "##ara": 3551,
      "##hemat": 3552,
      "league": 3553,
      "sheldonpenny": 3554,
      "##owers": 3555,
      "ray": 3556,
      "rate": 3557,
      "##stone": 3558,
      "##ots": 3559,
      "inse": 3560,
      "rele": 3561,
      "##asing": 3562,
      "beans": 3563,
      "belt": 3564,
      "meal": 3565,
      "hallow": 3566,
      "##idual": 3567,
      "##ache": 3568,
      "lied": 3569,
      "knight": 3570,
      "candy": 3571,
      "##amm": 3572,
      "sund": 3573,
      "susp": 3574,
      "whether": 3575,
      "##iling": 3576,
      "teen": 3577,
      "teac": 3578,
      "chall": 3579,
      "spl": 3580,
      "alph": 3581,
      "##igm": 3582,
      "##igning": 3583,
      "##itted": 3584,
      "anywhere": 3585,
      "loves": 3586,
      "energ": 3587,
      "feed": 3588,
      "prem": 3589,
      "##ured": 3590,
      "pocket": 3591,
      "coco": 3592,
      "greet": 3593,
      "closed": 3594,
      "twice": 3595,
      "##osc": 3596,
      "##ager": 3597,
      "bloss": 3598,
      "##belie": 3599,
      "cheer": 3600,
      "chest": 3601,
      "dish": 3602,
      "disney": 3603,
      "interrupt": 3604,
      "wrote": 3605,
      "remain": 3606,
      "crow": 3607,
      "crit": 3608,
      "contrib": 3609,
      "secondgirl": 3610,
      "breast": 3611,
      "understanding": 3612,
      "imposs": 3613,
      "recomm": 3614,
      "gives": 3615,
      "invite": 3616,
      "streng": 3617,
      "humili": 3618,
      "##udd": 3619,
      "term": 3620,
      "according": 3621,
      "##oying": 3622,
      "signal": 3623,
      "ordered": 3624,
      "evil": 3625,
      "events": 3626,
      "depends": 3627,
      "killed": 3628,
      "simply": 3629,
      "rule": 3630,
      "suggestion": 3631,
      "buying": 3632,
      "commun": 3633,
      "particles": 3634,
      "easier": 3635,
      "package": 3636,
      "realized": 3637,
      "sometime": 3638,
      "location": 3639,
      "grandm": 3640,
      "specif": 3641,
      "technology": 3642,
      "protocol": 3643,
      "touching": 3644,
      "animal": 3645,
      "device": 3646,
      "neurobi": 3647,
      "jerk": 3648,
      "napkin": 3649,
      "##fficient": 3650,
      "introduce": 3651,
      "bacon": 3652,
      "vacation": 3653,
      "history": 3654,
      "argument": 3655,
      "lobby": 3656,
      "continue": 3657,
      "paradigm": 3658,
      "magazine": 3659,
      "others": 3660,
      "purpose": 3661,
      "dimens": 3662,
      "john": 3663,
      "besides": 3664,
      "jesus": 3665,
      "halloween": 3666,
      "24": 3667,
      "80": 3668,
      "ax": 3669,
      "bal": 3670,
      "bill": 3671,
      "bars": 3672,
      "cast": 3673,
      "cere": 3674,
      "dust": 3675,
      "esc": 3676,
      "fal": 3677,
      "ip": 3678,
      "jun": 3679,
      "king": 3680,
      "kirk": 3681,
      "mc": 3682,
      "mart": 3683,
      "names": 3684,
      "ox": 3685,
      "pin": 3686,
      "ta": 3687,
      "taste": 3688,
      "tues": 3689,
      "ver": 3690,
      "van": 3691,
      "vol": 3692,
      "yo": 3693,
      "yay": 3694,
      "##lig": 3695,
      "##ned": 3696,
      "##ners": 3697,
      "##gar": 3698,
      "##sm": 3699,
      "##ex": 3700,
      "##ration": 3701,
      "##kripke": 3702,
      "##xim": 3703,
      "##cular": 3704,
      "##ware": 3705,
      "##ony": 3706,
      "however": 3707,
      "rand": 3708,
      "##lled": 3709,
      "##orical": 3710,
      "##lee": 3711,
      "itself": 3712,
      "##adder": 3713,
      "##vest": 3714,
      "##icy": 3715,
      "bel": 3716,
      "bey": 3717,
      "onto": 3718,
      "amb": 3719,
      "amount": 3720,
      "doom": 3721,
      "govern": 3722,
      "##imino": 3723,
      "neut": 3724,
      "justice": 3725,
      "##ching": 3726,
      "shake": 3727,
      "ate": 3728,
      "yellow": 3729,
      "upon": 3730,
      "likely": 3731,
      "##illa": 3732,
      "prim": 3733,
      "mob": 3734,
      "exh": 3735,
      "chos": 3736,
      "##tery": 3737,
      "ali": 3738,
      "goodness": 3739,
      "seemed": 3740,
      "##istic": 3741,
      "##ept": 3742,
      "##ulation": 3743,
      "role": 3744,
      "bob": 3745,
      "agent": 3746,
      "poison": 3747,
      "needed": 3748,
      "##ips": 3749,
      "carbon": 3750,
      "hasn": 3751,
      "##osal": 3752,
      "##osium": 3753,
      "##iform": 3754,
      "newton": 3755,
      "bladder": 3756,
      "brings": 3757,
      "parts": 3758,
      "diet": 3759,
      "feels": 3760,
      "##avy": 3761,
      "##boy": 3762,
      "cruel": 3763,
      "slight": 3764,
      "monopo": 3765,
      "minds": 3766,
      "oblig": 3767,
      "keeping": 3768,
      "careful": 3769,
      "humor": 3770,
      "account": 3771,
      "genetic": 3772,
      "##anced": 3773,
      "##ormous": 3774,
      "corner": 3775,
      "##ibility": 3776,
      "##prise": 3777,
      "hardly": 3778,
      "schro": 3779,
      "basket": 3780,
      "complain": 3781,
      "##stru": 3782,
      "fourth": 3783,
      "killing": 3784,
      "enterprise": 3785,
      "collection": 3786,
      "trains": 3787,
      "##ival": 3788,
      "charge": 3789,
      "barrykripke": 3790,
      "grab": 3791,
      "stanlee": 3792,
      "spending": 3793,
      "valid": 3794,
      "valent": 3795,
      "offered": 3796,
      "species": 3797,
      "joyce": 3798,
      "glasses": 3799,
      "expecting": 3800,
      "windows": 3801,
      "exciting": 3802,
      "copy": 3803,
      "covered": 3804,
      "##under": 3805,
      "details": 3806,
      "million": 3807,
      "failure": 3808,
      "fingers": 3809,
      "practice": 3810,
      "involved": 3811,
      "crime": 3812,
      "accidentally": 3813,
      "juice": 3814,
      "allowed": 3815,
      "bache": 3816,
      "disappointed": 3817,
      "attractive": 3818,
      "camer": 3819,
      "quarter": 3820,
      "symposium": 3821,
      "behavior": 3822,
      "hamburger": 3823,
      "explanation": 3824,
      "kryptonian": 3825,
      "liter": 3826,
      "daughter": 3827,
      "natural": 3828,
      "circum": 3829,
      "opinion": 3830,
      "hypothesis": 3831,
      "language": 3832,
      "author": 3833,
      "advantage": 3834,
      "strength": 3835,
      "grandmother": 3836,
      "tuesday": 3837,
      "government": 3838,
      "13": 3839,
      "ack": 3840,
      "astro": 3841,
      "bast": 3842,
      "born": 3843,
      "cher": 3844,
      "dun": 3845,
      "due": 3846,
      "dave": 3847,
      "dict": 3848,
      "fu": 3849,
      "hide": 3850,
      "iron": 3851,
      "jabber": 3852,
      "meth": 3853,
      "om": 3854,
      "owe": 3855,
      "pant": 3856,
      "rough": 3857,
      "vul": 3858,
      "virt": 3859,
      "wing": 3860,
      "wan": 3861,
      "wake": 3862,
      "##hab": 3863,
      "##dge": 3864,
      "##ae": 3865,
      "##can": 3866,
      "##vent": 3867,
      "##vous": 3868,
      "##fl": 3869,
      "##onse": 3870,
      "tou": 3871,
      "sheld": 3872,
      "##enic": 3873,
      "##erial": 3874,
      "raise": 3875,
      "rabb": 3876,
      "##ators": 3877,
      "theater": 3878,
      "##rem": 3879,
      "##reene": 3880,
      "##stic": 3881,
      "##orce": 3882,
      "##itor": 3883,
      "ancient": 3884,
      "##lect": 3885,
      "##isk": 3886,
      "reaction": 3887,
      "##ication": 3888,
      "##icles": 3889,
      "weight": 3890,
      "##asy": 3891,
      "bell": 3892,
      "beef": 3893,
      "ones": 3894,
      "meem": 3895,
      "hamm": 3896,
      "##aced": 3897,
      "lift": 3898,
      "##urd": 3899,
      "soy": 3900,
      "##rage": 3901,
      "##aman": 3902,
      "##ability": 3903,
      "shi": 3904,
      "aband": 3905,
      "##ctic": 3906,
      "##pers": 3907,
      "telesc": 3908,
      "exch": 3909,
      "spr": 3910,
      "defe": 3911,
      "conference": 3912,
      "##igg": 3913,
      "##ulk": 3914,
      "load": 3915,
      "enem": 3916,
      "enormous": 3917,
      "uns": 3918,
      "unbelie": 3919,
      "maid": 3920,
      "looked": 3921,
      "scen": 3922,
      "scan": 3923,
      "scoot": 3924,
      "scared": 3925,
      "fellow": 3926,
      "##orted": 3927,
      "arctic": 3928,
      "##pty": 3929,
      "##ipate": 3930,
      "ours": 3931,
      "smo": 3932,
      "pepper": 3933,
      "takei": 3934,
      "##osition": 3935,
      "bully": 3936,
      "##angreene": 3937,
      "##aging": 3938,
      "brent": 3939,
      "##osexual": 3940,
      "empty": 3941,
      "hipp": 3942,
      "hollywood": 3943,
      "grant": 3944,
      "flu": 3945,
      "price": 3946,
      "kinda": 3947,
      "acqu": 3948,
      "adj": 3949,
      "jokes": 3950,
      "helpful": 3951,
      "keys": 3952,
      "slum": 3953,
      "slipped": 3954,
      "context": 3955,
      "monte": 3956,
      "hotel": 3957,
      "huge": 3958,
      "attitude": 3959,
      "opens": 3960,
      "desp": 3961,
      "obs": 3962,
      "girlfriends": 3963,
      "mini": 3964,
      "final": 3965,
      "strange": 3966,
      "eats": 3967,
      "##phone": 3968,
      "##gged": 3969,
      "superior": 3970,
      "laughs": 3971,
      "compliment": 3972,
      "bright": 3973,
      "briangreene": 3974,
      "sne": 3975,
      "reasonable": 3976,
      "entertain": 3977,
      "perform": 3978,
      "babies": 3979,
      "collect": 3980,
      "response": 3981,
      "possess": 3982,
      "haircut": 3983,
      "commer": 3984,
      "community": 3985,
      "surprising": 3986,
      "solved": 3987,
      "considering": 3988,
      "falling": 3989,
      "suggests": 3990,
      "electron": 3991,
      "local": 3992,
      "engineer": 3993,
      "engineering": 3994,
      "pictures": 3995,
      "urine": 3996,
      "shirts": 3997,
      "calm": 3998,
      "nervous": 3999,
      "occur": 4000,
      "pulled": 4001,
      "threat": 4002,
      "window": 4003,
      "excited": 4004,
      "strike": 4005,
      "losing": 4006,
      "embarrassed": 4007,
      "animals": 4008,
      "position": 4009,
      "experienc": 4010,
      "dreams": 4011,
      "introduc": 4012,
      "carrying": 4013,
      "filled": 4014,
      "product": 4015,
      "korean": 4016,
      "spirit": 4017,
      "aquaman": 4018,
      "incredible": 4019,
      "shrimp": 4020,
      "brisket": 4021,
      "metaphor": 4022,
      "episode": 4023,
      "suddenly": 4024,
      "crowd": 4025,
      "impossible": 4026,
      "chosen": 4027,
      "valentine": 4028,
      "wanna": 4029,
      "meemaw": 4030,
      "abandon": 4031,
      "telescope": 4032,
      "unbelievable": 4033,
      "bid": 4034,
      "bank": 4035,
      "bene": 4036,
      "dated": 4037,
      "dare": 4038,
      "dale": 4039,
      "dyn": 4040,
      "eh": 4041,
      "fit": 4042,
      "fake": 4043,
      "fbi": 4044,
      "gard": 4045,
      "je": 4046,
      "jan": 4047,
      "jet": 4048,
      "jones": 4049,
      "ka": 4050,
      "kept": 4051,
      "lu": 4052,
      "op": 4053,
      "pact": 4054,
      "punch": 4055,
      "purr": 4056,
      "poop": 4057,
      "setting": 4058,
      "tie": 4059,
      "tum": 4060,
      "ugh": 4061,
      "vir": 4062,
      "view": 4063,
      "zone": 4064,
      "##uf": 4065,
      "##iff": 4066,
      "##lph": 4067,
      "##the": 4068,
      "##tle": 4069,
      "##nch": 4070,
      "##gen": 4071,
      "##hip": 4072,
      "##over": 4073,
      "##ront": 4074,
      "##yle": 4075,
      "##ping": 4076,
      "##aff": 4077,
      "##aven": 4078,
      "##kind": 4079,
      "##kates": 4080,
      "##xic": 4081,
      "##cher": 4082,
      "##wozniak": 4083,
      "##bl": 4084,
      "##bling": 4085,
      "##val": 4086,
      "##fly": 4087,
      "##fety": 4088,
      "##zing": 4089,
      "##arily": 4090,
      "##hem": 4091,
      "##hero": 4092,
      "sheets": 4093,
      "race": 4094,
      "##state": 4095,
      "##omes": 4096,
      "##esc": 4097,
      "stress": 4098,
      "mee": 4099,
      "among": 4100,
      "##enty": 4101,
      "##ental": 4102,
      "##enture": 4103,
      "##verine": 4104,
      "lif": 4105,
      "lived": 4106,
      "sever": 4107,
      "season": 4108,
      "separ": 4109,
      "##ppers": 4110,
      "##usted": 4111,
      "neg": 4112,
      "##cha": 4113,
      "asp": 4114,
      "shamy": 4115,
      "##cei": 4116,
      "yester": 4117,
      "upstairs": 4118,
      "##ilty": 4119,
      "mocking": 4120,
      "exer": 4121,
      "cha": 4122,
      "spoil": 4123,
      "altern": 4124,
      "guilty": 4125,
      "prostitute": 4126,
      "uniform": 4127,
      "scr": 4128,
      "sched": 4129,
      "##erely": 4130,
      "cosm": 4131,
      "manager": 4132,
      "greene": 4133,
      "safety": 4134,
      "overre": 4135,
      "##onday": 4136,
      "waited": 4137,
      "phrase": 4138,
      "blah": 4139,
      "blank": 4140,
      "ways": 4141,
      "host": 4142,
      "print": 4143,
      "princ": 4144,
      "apple": 4145,
      "stephen": 4146,
      "barn": 4147,
      "quit": 4148,
      "quality": 4149,
      "points": 4150,
      "mary": 4151,
      "##standing": 4152,
      "##dinger": 4153,
      "showing": 4154,
      "beta": 4155,
      "desper": 4156,
      "hearing": 4157,
      "finished": 4158,
      "struct": 4159,
      "##udes": 4160,
      "signific": 4161,
      "english": 4162,
      "superhero": 4163,
      "bowel": 4164,
      "indiv": 4165,
      "##idden": 4166,
      "walks": 4167,
      "walked": 4168,
      "##ccy": 4169,
      "insult": 4170,
      "report": 4171,
      "confidence": 4172,
      "apologies": 4173,
      "drinks": 4174,
      "passed": 4175,
      "transport": 4176,
      "adventure": 4177,
      "kissed": 4178,
      "tries": 4179,
      "value": 4180,
      "total": 4181,
      "learned": 4182,
      "electr": 4183,
      "followed": 4184,
      "birds": 4185,
      "obvious": 4186,
      "limited": 4187,
      "##aneous": 4188,
      "calcul": 4189,
      "radiation": 4190,
      "lawy": 4191,
      "convinc": 4192,
      "imaginary": 4193,
      "roller": 4194,
      "embarrassing": 4195,
      "cookies": 4196,
      "palace": 4197,
      "annoying": 4198,
      "silence": 4199,
      "flags": 4200,
      "bridge": 4201,
      "responsible": 4202,
      "paintball": 4203,
      "failed": 4204,
      "stevewozniak": 4205,
      "berry": 4206,
      "deliver": 4207,
      "hindu": 4208,
      "mountain": 4209,
      "venkates": 4210,
      "delightful": 4211,
      "racist": 4212,
      "##althy": 4213,
      "fortun": 4214,
      "counter": 4215,
      "marriage": 4216,
      "wolverine": 4217,
      "church": 4218,
      "bongos": 4219,
      "pillow": 4220,
      "cocoa": 4221,
      "specifically": 4222,
      "schrodinger": 4223,
      "bachelor": 4224,
      "bastard": 4225,
      "scooter": 4226,
      "yesterday": 4227,
      "venkatesh": 4228,
      "100": 4229,
      "40": 4230,
      "ale": 4231,
      "boring": 4232,
      "dut": 4233,
      "dna": 4234,
      "duck": 4235,
      "darth": 4236,
      "fer": 4237,
      "fash": 4238,
      "fiction": 4239,
      "gar": 4240,
      "gro": 4241,
      "gross": 4242,
      "hint": 4243,
      "hulk": 4244,
      "jap": 4245,
      "jell": 4246,
      "kites": 4247,
      "link": 4248,
      "monday": 4249,
      "na": 4250,
      "pig": 4251,
      "rout": 4252,
      "sight": 4253,
      "tast": 4254,
      "vader": 4255,
      "zomb": 4256,
      "##uum": 4257,
      "##iod": 4258,
      "##tyson": 4259,
      "##nal": 4260,
      "##nie": 4261,
      "##gment": 4262,
      "##gue": 4263,
      "##ses": 4264,
      "##ec": 4265,
      "##egr": 4266,
      "##pants": 4267,
      "##mn": 4268,
      "##mine": 4269,
      "##aver": 4270,
      "##cl": 4271,
      "##che": 4272,
      "##cra": 4273,
      "##vation": 4274,
      "##jam": 4275,
      "##lder": 4276,
      "shel": 4277,
      "sheet": 4278,
      "##enge": 4279,
      "##ined": 4280,
      "##inct": 4281,
      "theat": 4282,
      "thin": 4283,
      "##sters": 4284,
      "##itable": 4285,
      "##itled": 4286,
      "##edy": 4287,
      "##edition": 4288,
      "reject": 4289,
      "##vement": 4290,
      "##rible": 4291,
      "measure": 4292,
      "amusing": 4293,
      "hem": 4294,
      "heavy": 4295,
      "heaven": 4296,
      "##kel": 4297,
      "##sey": 4298,
      "bernie": 4299,
      "##allow": 4300,
      "washing": 4301,
      "neat": 4302,
      "##ams": 4303,
      "##chan": 4304,
      "shout": 4305,
      "ability": 4306,
      "##ceive": 4307,
      "##celer": 4308,
      "##ilities": 4309,
      "##ndred": 4310,
      "##oodle": 4311,
      "spill": 4312,
      "##ander": 4313,
      "drtyson": 4314,
      "fruit": 4315,
      "whoever": 4316,
      "plate": 4317,
      "plenty": 4318,
      "##iger": 4319,
      "##ula": 4320,
      "vegas": 4321,
      "##ively": 4322,
      "loser": 4323,
      "maker": 4324,
      "bos": 4325,
      "offense": 4326,
      "manuf": 4327,
      "##iple": 4328,
      "##berry": 4329,
      "smoot": 4330,
      "##izes": 4331,
      "becomes": 4332,
      "twitter": 4333,
      "phd": 4334,
      "##agree": 4335,
      "blog": 4336,
      "##assimino": 4337,
      "emp": 4338,
      "disagree": 4339,
      "neverthe": 4340,
      "pleasure": 4341,
      "otherwise": 4342,
      "mission": 4343,
      "interact": 4344,
      "sexually": 4345,
      "adm": 4346,
      "##aves": 4347,
      "period": 4348,
      "bigger": 4349,
      "remove": 4350,
      "crack": 4351,
      "slash": 4352,
      "glow": 4353,
      "bread": 4354,
      "finding": 4355,
      "park": 4356,
      "parking": 4357,
      "mathemat": 4358,
      "material": 4359,
      "clears": 4360,
      "hundred": 4361,
      "sigh": 4362,
      "compan": 4363,
      "driver": 4364,
      "sleepy": 4365,
      "swiss": 4366,
      "warning": 4367,
      "sky": 4368,
      "runs": 4369,
      "sym": 4370,
      "bestie": 4371,
      "superp": 4372,
      "expedition": 4373,
      "basic": 4374,
      "evidence": 4375,
      "indic": 4376,
      "numbers": 4377,
      "russ": 4378,
      "christy": 4379,
      "training": 4380,
      "extrem": 4381,
      "repres": 4382,
      "testing": 4383,
      "learning": 4384,
      "traffic": 4385,
      "defense": 4386,
      "delicious": 4387,
      "delhi": 4388,
      "pieces": 4389,
      "##itches": 4390,
      "hawai": 4391,
      "medical": 4392,
      "oppos": 4393,
      "##mostat": 4394,
      "gifts": 4395,
      "streets": 4396,
      "tricks": 4397,
      "horrible": 4398,
      "screwed": 4399,
      "edge": 4400,
      "edition": 4401,
      "prepare": 4402,
      "angeles": 4403,
      "assumed": 4404,
      "capable": 4405,
      "harp": 4406,
      "forever": 4407,
      "cookie": 4408,
      "option": 4409,
      "typing": 4410,
      "frozen": 4411,
      "crushers": 4412,
      "crimin": 4413,
      "flying": 4414,
      "discovery": 4415,
      "studying": 4416,
      "private": 4417,
      "privacy": 4418,
      "results": 4419,
      "disappointing": 4420,
      "betrayed": 4421,
      "expression": 4422,
      "ruined": 4423,
      "drawer": 4424,
      "officer": 4425,
      "conclus": 4426,
      "german": 4427,
      "odds": 4428,
      "angry": 4429,
      "intelligence": 4430,
      "regarding": 4431,
      "dumpling": 4432,
      "audi": 4433,
      "fantastic": 4434,
      "determine": 4435,
      "mirror": 4436,
      "drmassimino": 4437,
      "particularly": 4438,
      "olive": 4439,
      "thermostat": 4440,
      "intellectual": 4441,
      "ghostly": 4442,
      "molecular": 4443,
      "insect": 4444,
      "challenge": 4445,
      "alpha": 4446,
      "energy": 4447,
      "greetings": 4448,
      "##oscop": 4449,
      "blossoms": 4450,
      "random": 4451,
      "neutr": 4452,
      "tough": 4453,
      "exchange": 4454,
      "despite": 4455,
      "obsess": 4456,
      "commercial": 4457,
      "introduced": 4458,
      "benef": 4459,
      "dynam": 4460,
      "garden": 4461,
      "tumor": 4462,
      "schedule": 4463,
      "significant": 4464,
      "fashion": 4465,
      "##craft": 4466,
      "manufact": 4467,
      "nevertheless": 4468,
      "extremely": 4469,
      "23": 4470,
      "aa": 4471,
      "ast": 4472,
      "aud": 4473,
      "ben": 4474,
      "ble": 4475,
      "cable": 4476,
      "cub": 4477,
      "cush": 4478,
      "fund": 4479,
      "gall": 4480,
      "gel": 4481,
      "goog": 4482,
      "hun": 4483,
      "hitting": 4484,
      "hiding": 4485,
      "jib": 4486,
      "junk": 4487,
      "mit": 4488,
      "mac": 4489,
      "mim": 4490,
      "mur": 4491,
      "maint": 4492,
      "mama": 4493,
      "nar": 4494,
      "oce": 4495,
      "peter": 4496,
      "pitc": 4497,
      "pump": 4498,
      "rum": 4499,
      "rare": 4500,
      "rush": 4501,
      "risk": 4502,
      "sam": 4503,
      "sper": 4504,
      "sate": 4505,
      "sque": 4506,
      "tip": 4507,
      "trapped": 4508,
      "vom": 4509,
      "vers": 4510,
      "vint": 4511,
      "zip": 4512,
      "##uly": 4513,
      "##uding": 4514,
      "##ives": 4515,
      "##ians": 4516,
      "##lene": 4517,
      "##ti": 4518,
      "##ted": 4519,
      "##nam": 4520,
      "##hm": 4521,
      "##eger": 4522,
      "##mar": 4523,
      "##met": 4524,
      "##mble": 4525,
      "##dents": 4526,
      "##aim": 4527,
      "##kick": 4528,
      "##case": 4529,
      "##cles": 4530,
      "##war": 4531,
      "##win": 4532,
      "##bed": 4533,
      "##bly": 4534,
      "##vy": 4535,
      "##oni": 4536,
      "##arant": 4537,
      "##heart": 4538,
      "##ening": 4539,
      "##erve": 4540,
      "##ining": 4541,
      "youn": 4542,
      "thor": 4543,
      "thus": 4544,
      "##read": 4545,
      "##rection": 4546,
      "##lle": 4547,
      "##star": 4548,
      "##eton": 4549,
      "##itary": 4550,
      "itali": 4551,
      "##oma": 4552,
      "##ado": 4553,
      "##ades": 4554,
      "##adem": 4555,
      "inn": 4556,
      "##ishes": 4557,
      "##isions": 4558,
      "reach": 4559,
      "reque": 4560,
      "rehab": 4561,
      "recei": 4562,
      "##icing": 4563,
      "weak": 4564,
      "##ases": 4565,
      "##ashed": 4566,
      "##asons": 4567,
      "##utions": 4568,
      "##aly": 4569,
      "##aling": 4570,
      "##right": 4571,
      "##ription": 4572,
      "mechan": 4573,
      "notes": 4574,
      "noticed": 4575,
      "within": 4576,
      "##imate": 4577,
      "##lying": 4578,
      "sea": 4579,
      "soap": 4580,
      "##ament": 4581,
      "##iest": 4582,
      "##olic": 4583,
      "sup": 4584,
      "shre": 4585,
      "studies": 4586,
      "chim": 4587,
      "chili": 4588,
      "chann": 4589,
      "##ters": 4590,
      "##umin": 4591,
      "dem": 4592,
      "frust": 4593,
      "places": 4594,
      "##uls": 4595,
      "orange": 4596,
      "rose": 4597,
      "roeger": 4598,
      "ens": 4599,
      "ench": 4600,
      "maw": 4601,
      "uses": 4602,
      "usual": 4603,
      "boss": 4604,
      "bored": 4605,
      "integr": 4606,
      "fever": 4607,
      "coinc": 4608,
      "##aker": 4609,
      "manontv": 4610,
      "arch": 4611,
      "grew": 4612,
      "smooth": 4613,
      "peas": 4614,
      "peace": 4615,
      "##bles": 4616,
      "wave": 4617,
      "apart": 4618,
      "clue": 4619,
      "clause": 4620,
      "clock": 4621,
      "overl": 4622,
      "became": 4623,
      "bug": 4624,
      "buff": 4625,
      "phil": 4626,
      "blame": 4627,
      "partners": 4628,
      "diam": 4629,
      "diag": 4630,
      "direct": 4631,
      "womanontv": 4632,
      "chem": 4633,
      "cheap": 4634,
      "checking": 4635,
      "appeal": 4636,
      "pleasant": 4637,
      "immed": 4638,
      "acceler": 4639,
      "academ": 4640,
      "relig": 4641,
      "crash": 4642,
      "slip": 4643,
      "mario": 4644,
      "monster": 4645,
      "guessing": 4646,
      "shows": 4647,
      "comprom": 4648,
      "drill": 4649,
      "keeps": 4650,
      "recent": 4651,
      "lots": 4652,
      "invitation": 4653,
      "##uded": 4654,
      "loop": 4655,
      "##phys": 4656,
      "created": 4657,
      "ski": 4658,
      "skip": 4659,
      "plane": 4660,
      "corrid": 4661,
      "surr": 4662,
      "treasure": 4663,
      "engage": 4664,
      "stuffed": 4665,
      "staying": 4666,
      "ends": 4667,
      "mostly": 4668,
      "basically": 4669,
      "menu": 4670,
      "famous": 4671,
      "entitled": 4672,
      "labor": 4673,
      "presence": 4674,
      "presents": 4675,
      "halfway": 4676,
      "infinite": 4677,
      "centrif": 4678,
      "repe": 4679,
      "addiction": 4680,
      "dresses": 4681,
      "sidekick": 4682,
      "fright": 4683,
      "costum": 4684,
      "babylon": 4685,
      "internal": 4686,
      "entirely": 4687,
      "biology": 4688,
      "absurd": 4689,
      "efforts": 4690,
      "airport": 4691,
      "physicists": 4692,
      "draft": 4693,
      "techni": 4694,
      "##levant": 4695,
      "statement": 4696,
      "crossed": 4697,
      "panic": 4698,
      "emotion": 4699,
      "salad": 4700,
      "type": 4701,
      "cultural": 4702,
      "discovered": 4703,
      "jersey": 4704,
      "referring": 4705,
      "issues": 4706,
      "provide": 4707,
      "include": 4708,
      "letters": 4709,
      "responsibility": 4710,
      "vacuum": 4711,
      "graduate": 4712,
      "jacket": 4713,
      "comforting": 4714,
      "observation": 4715,
      "society": 4716,
      "arrived": 4717,
      "digital": 4718,
      "irre": 4719,
      "pounds": 4720,
      "existence": 4721,
      "intelligent": 4722,
      "candles": 4723,
      "initial": 4724,
      "dumplings": 4725,
      "successful": 4726,
      "unlikely": 4727,
      "flesh": 4728,
      "normal": 4729,
      "requires": 4730,
      "duh": 4731,
      "snap": 4732,
      "liquid": 4733,
      "closet": 4734,
      "crisis": 4735,
      "tweet": 4736,
      "evolution": 4737,
      "accomplish": 4738,
      "papa": 4739,
      "touched": 4740,
      "intolerant": 4741,
      "peanuts": 4742,
      "breasts": 4743,
      "dimensional": 4744,
      "ipod": 4745,
      "alien": 4746,
      "camera": 4747,
      "virtual": 4748,
      "##iggling": 4749,
      "miniature": 4750,
      "experiencing": 4751,
      "structure": 4752,
      "individual": 4753,
      "lawyer": 4754,
      "japan": 4755,
      "sympt": 4756,
      "##oscopy": 4757,
      "benefits": 4758,
      "jibber": 4759,
      "ocean": 4760,
      "sperm": 4761,
      "vintage": 4762,
      "request": 4763,
      "immedi": 4764,
      "corridor": 4765,
      "28": 4766,
      "36": 4767,
      "600": 4768,
      "ay": 4769,
      "bound": 4770,
      "borrow": 4771,
      "bacter": 4772,
      "cur": 4773,
      "cro": 4774,
      "cord": 4775,
      "cudd": 4776,
      "dip": 4777,
      "eur": 4778,
      "fart": 4779,
      "fab": 4780,
      "faster": 4781,
      "gy": 4782,
      "gam": 4783,
      "gang": 4784,
      "ira": 4785,
      "jac": 4786,
      "jail": 4787,
      "ko": 4788,
      "main": 4789,
      "matt": 4790,
      "merely": 4791,
      "nut": 4792,
      "nick": 4793,
      "nint": 4794,
      "nons": 4795,
      "nuc": 4796,
      "national": 4797,
      "nipp": 4798,
      "oc": 4799,
      "ped": 4800,
      "pud": 4801,
      "panc": 4802,
      "pms": 4803,
      "root": 4804,
      "rhet": 4805,
      "sac": 4806,
      "signing": 4807,
      "tit": 4808,
      "tap": 4809,
      "tanger": 4810,
      "wo": 4811,
      "wit": 4812,
      "wozniak": 4813,
      "##ux": 4814,
      "##uous": 4815,
      "##ugs": 4816,
      "##now": 4817,
      "##nes": 4818,
      "##gree": 4819,
      "##hamed": 4820,
      "##ees": 4821,
      "##rate": 4822,
      "##po": 4823,
      "##pent": 4824,
      "##mark": 4825,
      "##des": 4826,
      "##dog": 4827,
      "##kh": 4828,
      "##ky": 4829,
      "##cat": 4830,
      "##cologist": 4831,
      "##bit": 4832,
      "##back": 4833,
      "##face": 4834,
      "##from": 4835,
      "##zer": 4836,
      "##arch": 4837,
      "##heim": 4838,
      "tow": 4839,
      "tool": 4840,
      "tooth": 4841,
      "legs": 4842,
      "##ener": 4843,
      "##enzy": 4844,
      "##inated": 4845,
      "rail": 4846,
      "##atic": 4847,
      "##anium": 4848,
      "##lla": 4849,
      "##sty": 4850,
      "##store": 4851,
      "##etically": 4852,
      "##orable": 4853,
      "whom": 4854,
      "inh": 4855,
      "infer": 4856,
      "inapp": 4857,
      "##esack": 4858,
      "##esma": 4859,
      "reb": 4860,
      "##vey": 4861,
      "##veling": 4862,
      "beats": 4863,
      "stack": 4864,
      "stere": 4865,
      "stew": 4866,
      "stomp": 4867,
      "##rier": 4868,
      "##ribe": 4869,
      "mel": 4870,
      "meas": 4871,
      "amaz": 4872,
      "##aches": 4873,
      "gob": 4874,
      "noises": 4875,
      "##iments": 4876,
      "##impton": 4877,
      "##ura": 4878,
      "##urate": 4879,
      "##olk": 4880,
      "asse": 4881,
      "ashamed": 4882,
      "alley": 4883,
      "##endo": 4884,
      "##aha": 4885,
      "chose": 4886,
      "choler": 4887,
      "spare": 4888,
      "spring": 4889,
      "spread": 4890,
      "##geon": 4891,
      "deck": 4892,
      "degree": 4893,
      "##inky": 4894,
      "guilt": 4895,
      "comple": 4896,
      "##inding": 4897,
      "frenzy": 4898,
      "plastic": 4899,
      "plimpton": 4900,
      "veh": 4901,
      "vest": 4902,
      "proper": 4903,
      "produc": 4904,
      "proceed": 4905,
      "prostate": 4906,
      "##ains": 4907,
      "loss": 4908,
      "unf": 4909,
      "unre": 4910,
      "unit": 4911,
      "scale": 4912,
      "scrap": 4913,
      "scented": 4914,
      "feyn": 4915,
      "preser": 4916,
      "backs": 4917,
      "backwards": 4918,
      "arrog": 4919,
      "peer": 4920,
      "wax": 4921,
      "##ization": 4922,
      "saved": 4923,
      "click": 4924,
      "cars": 4925,
      "trash": 4926,
      "truly": 4927,
      "##place": 4928,
      "##anged": 4929,
      "block": 4930,
      "##bell": 4931,
      "brush": 4932,
      "##aped": 4933,
      "email": 4934,
      "hobb": 4935,
      "gras": 4936,
      "granted": 4937,
      "flaw": 4938,
      "disg": 4939,
      "##shi": 4940,
      "pren": 4941,
      "player": 4942,
      "elim": 4943,
      "apply": 4944,
      "helium": 4945,
      "##cup": 4946,
      "gods": 4947,
      "##quil": 4948,
      "quote": 4949,
      "helped": 4950,
      "relat": 4951,
      "slut": 4952,
      "glo": 4953,
      "supply": 4954,
      "headed": 4955,
      "##icted": 4956,
      "sits": 4957,
      "meets": 4958,
      "staring": 4959,
      "relationships": 4960,
      "pajam": 4961,
      "awful": 4962,
      "genit": 4963,
      "umbre": 4964,
      "##ension": 4965,
      "##ances": 4966,
      "surg": 4967,
      "surv": 4968,
      "##ggie": 4969,
      "breakup": 4970,
      "ended": 4971,
      "complicated": 4972,
      "brief": 4973,
      "depress": 4974,
      "simul": 4975,
      "simpl": 4976,
      "babe": 4977,
      "differential": 4978,
      "respond": 4979,
      "latest": 4980,
      "##ivity": 4981,
      "##necologist": 4982,
      "sugar": 4983,
      "fold": 4984,
      "commit": 4985,
      "infl": 4986,
      "papers": 4987,
      "freed": 4988,
      "voicefrom": 4989,
      "insist": 4990,
      "confront": 4991,
      "addition": 4992,
      "machines": 4993,
      "wednes": 4994,
      "steak": 4995,
      "##ground": 4996,
      "transfer": 4997,
      "brains": 4998,
      "distress": 4999,
      "shots": 5000,
      "enjoyed": 5001,
      "potty": 5002,
      "potato": 5003,
      "equation": 5004,
      "equations": 5005,
      "equals": 5006,
      "##television": 5007,
      "bike": 5008,
      "falls": 5009,
      "triv": 5010,
      "valu": 5011,
      "##atively": 5012,
      "throwing": 5013,
      "##racted": 5014,
      "gentleman": 5015,
      "changing": 5016,
      "lime": 5017,
      "lima": 5018,
      "cleaning": 5019,
      "shorts": 5020,
      "modern": 5021,
      "sucks": 5022,
      "condesc": 5023,
      "kateesack": 5024,
      "popular": 5025,
      "judgment": 5026,
      "leading": 5027,
      "pulling": 5028,
      "##ausible": 5029,
      "blowing": 5030,
      "educ": 5031,
      "massage": 5032,
      "pupp": 5033,
      "puff": 5034,
      "former": 5035,
      "foreign": 5036,
      "strikes": 5037,
      "strippers": 5038,
      "homes": 5039,
      "homosexual": 5040,
      "cyl": 5041,
      "optim": 5042,
      "returned": 5043,
      "whiteboard": 5044,
      "crusher": 5045,
      "hygi": 5046,
      "misunder": 5047,
      "announ": 5048,
      "privile": 5049,
      "locked": 5050,
      "dropping": 5051,
      "reminds": 5052,
      "afford": 5053,
      "taller": 5054,
      "photo": 5055,
      "bridesma": 5056,
      "baff": 5057,
      "muff": 5058,
      "richard": 5059,
      "sensitive": 5060,
      "betrayal": 5061,
      "battlestar": 5062,
      "orders": 5063,
      "attempting": 5064,
      "progress": 5065,
      "jealousy": 5066,
      "conclusion": 5067,
      "honestly": 5068,
      "boots": 5069,
      "frame": 5070,
      "further": 5071,
      "wii": 5072,
      "yelling": 5073,
      "logical": 5074,
      "dumped": 5075,
      "guests": 5076,
      "soul": 5077,
      "colonoscopy": 5078,
      "recognize": 5079,
      "established": 5080,
      "bunny": 5081,
      "feder": 5082,
      "greek": 5083,
      "whisper": 5084,
      "choices": 5085,
      "latin": 5086,
      "weapon": 5087,
      "source": 5088,
      "release": 5089,
      "sunday": 5090,
      "premise": 5091,
      "disneyland": 5092,
      "recommend": 5093,
      "belong": 5094,
      "beyond": 5095,
      "slightly": 5096,
      "acknow": 5097,
      "astrophys": 5098,
      "rabbits": 5099,
      "janitor": 5100,
      "virgin": 5101,
      "aspect": 5102,
      "exercise": 5103,
      "scrat": 5104,
      "desperate": 5105,
      "theatre": 5106,
      "opposite": 5107,
      "audience": 5108,
      "insects": 5109,
      "asth": 5110,
      "cushion": 5111,
      "maintain": 5112,
      "satell": 5113,
      "squee": 5114,
      "version": 5115,
      "channel": 5116,
      "enchanted": 5117,
      "japanese": 5118,
      "gynecologist": 5119,
      "nickn": 5120,
      "nintendo": 5121,
      "nucle": 5122,
      "pudding": 5123,
      "rhetorical": 5124,
      "tangerine": 5125,
      "inappropriate": 5126,
      "complex": 5127,
      "feynman": 5128,
      "pajamas": 5129,
      "voicefromtelevision": 5130,
      "wednesday": 5131,
      "kateesackhoff": 5132,
      "31": 5133,
      "500": 5134,
      "60": 5135,
      "aven": 5136,
      "bou": 5137,
      "bot": 5138,
      "bay": 5139,
      "bam": 5140,
      "bomb": 5141,
      "coo": 5142,
      "cows": 5143,
      "civ": 5144,
      "dv": 5145,
      "dice": 5146,
      "ears": 5147,
      "fond": 5148,
      "furn": 5149,
      "goof": 5150,
      "gym": 5151,
      "hog": 5152,
      "hilar": 5153,
      "iq": 5154,
      "jog": 5155,
      "james": 5156,
      "mal": 5157,
      "mah": 5158,
      "mental": 5159,
      "nu": 5160,
      "nin": 5161,
      "nah": 5162,
      "nation": 5163,
      "nause": 5164,
      "oy": 5165,
      "oven": 5166,
      "ouch": 5167,
      "pad": 5168,
      "picking": 5169,
      "rend": 5170,
      "rice": 5171,
      "rude": 5172,
      "sen": 5173,
      "sab": 5174,
      "sink": 5175,
      "sist": 5176,
      "sakes": 5177,
      "sending": 5178,
      "ti": 5179,
      "tar": 5180,
      "tent": 5181,
      "tend": 5182,
      "tone": 5183,
      "ug": 5184,
      "ult": 5185,
      "vast": 5186,
      "vote": 5187,
      "woo": 5188,
      "wig": 5189,
      "yum": 5190,
      "##uzz": 5191,
      "##ts": 5192,
      "##time": 5193,
      "##night": 5194,
      "##nos": 5195,
      "##gie": 5196,
      "##house": 5197,
      "##old": 5198,
      "##row": 5199,
      "##rad": 5200,
      "##rated": 5201,
      "##ded": 5202,
      "##date": 5203,
      "##aled": 5204,
      "##kn": 5205,
      "##cue": 5206,
      "##corn": 5207,
      "##water": 5208,
      "##vin": 5209,
      "##vis": 5210,
      "##vir": 5211,
      "##vention": 5212,
      "##fowler": 5213,
      "##force": 5214,
      "##0s": 5215,
      "##ari": 5216,
      "##aries": 5217,
      "toys": 5218,
      "toward": 5219,
      "len": 5220,
      "led": 5221,
      "leaves": 5222,
      "##athing": 5223,
      "thumb": 5224,
      "##llider": 5225,
      "##orian": 5226,
      "##iture": 5227,
      "##othet": 5228,
      "whist": 5229,
      "reve": 5230,
      "relie": 5231,
      "review": 5232,
      "reasons": 5233,
      "onion": 5234,
      "onof": 5235,
      "strip": 5236,
      "stap": 5237,
      "stock": 5238,
      "stare": 5239,
      "states": 5240,
      "##rio": 5241,
      "##river": 5242,
      "melt": 5243,
      "mexic": 5244,
      "doc": 5245,
      "dolph": 5246,
      "##acing": 5247,
      "##acle": 5248,
      "gosh": 5249,
      "##entially": 5250,
      "forced": 5251,
      "noted": 5252,
      "##alled": 5253,
      "liber": 5254,
      "sequ": 5255,
      "sevent": 5256,
      "##usting": 5257,
      "sold": 5258,
      "sole": 5259,
      "##road": 5260,
      "mrsfowler": 5261,
      "aside": 5262,
      "succ": 5263,
      "sushi": 5264,
      "shu": 5265,
      "student": 5266,
      "atoms": 5267,
      "atomic": 5268,
      "teaching": 5269,
      "choo": 5270,
      "chatt": 5271,
      "##tered": 5272,
      "spy": 5273,
      "sport": 5274,
      "spark": 5275,
      "sports": 5276,
      "alt": 5277,
      "alg": 5278,
      "albert": 5279,
      "##umps": 5280,
      "deb": 5281,
      "deaf": 5282,
      "guarant": 5283,
      "comics": 5284,
      "franc": 5285,
      "whore": 5286,
      "##istically": 5287,
      "proced": 5288,
      "whenever": 5289,
      "somehow": 5290,
      "unh": 5291,
      "unus": 5292,
      "boz": 5293,
      "bodies": 5294,
      "intend": 5295,
      "intru": 5296,
      "fest": 5297,
      "backup": 5298,
      "offers": 5299,
      "poly": 5300,
      "##ortal": 5301,
      "manip": 5302,
      "manage": 5303,
      "mankind": 5304,
      "army": 5305,
      "arms": 5306,
      "argu": 5307,
      "friendly": 5308,
      "##berg": 5309,
      "ourselves": 5310,
      "smile": 5311,
      "pew": 5312,
      "sail": 5313,
      "##ission": 5314,
      "claw": 5315,
      "claim": 5316,
      "overth": 5317,
      "##osity": 5318,
      "whereas": 5319,
      "##ograp": 5320,
      "bugs": 5321,
      "##ifer": 5322,
      "shoulder": 5323,
      "actor": 5324,
      "pharm": 5325,
      "themselves": 5326,
      "blind": 5327,
      "##athon": 5328,
      "##assho": 5329,
      "grassho": 5330,
      "flower": 5331,
      "dishes": 5332,
      "display": 5333,
      "puts": 5334,
      "appet": 5335,
      "applic": 5336,
      "imm": 5337,
      "interject": 5338,
      "interview": 5339,
      "assure": 5340,
      "bare": 5341,
      "barbe": 5342,
      "adorable": 5343,
      "joking": 5344,
      "perm": 5345,
      "perman": 5346,
      "asks": 5347,
      "##dium": 5348,
      "##mony": 5349,
      "courage": 5350,
      "pointed": 5351,
      "pointless": 5352,
      "##igned": 5353,
      "marathon": 5354,
      "contest": 5355,
      "handful": 5356,
      "thanksgi": 5357,
      "swell": 5358,
      "showed": 5359,
      "launch": 5360,
      "finds": 5361,
      "compon": 5362,
      "opened": 5363,
      "desert": 5364,
      "deserve": 5365,
      "recall": 5366,
      "carefully": 5367,
      "minim": 5368,
      "stranger": 5369,
      "loose": 5370,
      "unique": 5371,
      "##collider": 5372,
      "facts": 5373,
      "dining": 5374,
      "warlord": 5375,
      "mustache": 5376,
      "laid": 5377,
      "ideas": 5378,
      "##ggle": 5379,
      "supercollider": 5380,
      "stayed": 5381,
      "laughlin": 5382,
      "sweetheart": 5383,
      "basis": 5384,
      "checked": 5385,
      "label": 5386,
      "##hold": 5387,
      "farm": 5388,
      "cheeseburger": 5389,
      "reduc": 5390,
      "frequ": 5391,
      "defin": 5392,
      "transpor": 5393,
      "participate": 5394,
      "advanced": 5395,
      "easily": 5396,
      "members": 5397,
      "musical": 5398,
      "lessons": 5399,
      "fallen": 5400,
      "electro": 5401,
      "proposed": 5402,
      "speaker": 5403,
      "jewel": 5404,
      "sadly": 5405,
      "sucky": 5406,
      "condens": 5407,
      "drew": 5408,
      "popcorn": 5409,
      "shuttle": 5410,
      "occurs": 5411,
      "approach": 5412,
      "approaching": 5413,
      "generation": 5414,
      "laws": 5415,
      "protect": 5416,
      "levels": 5417,
      "193": 5418,
      "presentation": 5419,
      "bags": 5420,
      "##loved": 5421,
      "##spect": 5422,
      "range": 5423,
      "expected": 5424,
      "facial": 5425,
      "homo": 5426,
      "hypothet": 5427,
      "square": 5428,
      "psychic": 5429,
      "devast": 5430,
      "positive": 5431,
      "informed": 5432,
      "neighbors": 5433,
      "settled": 5434,
      "practical": 5435,
      "curiosity": 5436,
      "hyd": 5437,
      "hooker": 5438,
      "published": 5439,
      "antic": 5440,
      "buttocks": 5441,
      "crawl": 5442,
      "astronauts": 5443,
      "dropped": 5444,
      "silver": 5445,
      "provided": 5446,
      "quickly": 5447,
      "contacts": 5448,
      "including": 5449,
      "bald": 5450,
      "dryer": 5451,
      "mentioned": 5452,
      "merry": 5453,
      "##rogen": 5454,
      "arranged": 5455,
      "##hyth": 5456,
      "spiner": 5457,
      "program": 5458,
      "faith": 5459,
      "official": 5460,
      "destroyed": 5461,
      "banana": 5462,
      "angle": 5463,
      "production": 5464,
      "celebrating": 5465,
      "ignoring": 5466,
      "freaky": 5467,
      "previous": 5468,
      "tradition": 5469,
      "traditional": 5470,
      "caused": 5471,
      "multi": 5472,
      "network": 5473,
      "normally": 5474,
      "operating": 5475,
      "intimid": 5476,
      "thousands": 5477,
      "analy": 5478,
      "encou": 5479,
      "encoun": 5480,
      "dumbass": 5481,
      "motorcy": 5482,
      "swimming": 5483,
      "establish": 5484,
      "microbi": 5485,
      "cancel": 5486,
      "climbing": 5487,
      "journey": 5488,
      "mummy": 5489,
      "forbid": 5490,
      "demonstr": 5491,
      "wasted": 5492,
      "teeny": 5493,
      "teacher": 5494,
      "contribution": 5495,
      "communicate": 5496,
      "neurobiology": 5497,
      "cereal": 5498,
      "false": 5499,
      "junior": 5500,
      "exha": 5501,
      "##struction": 5502,
      "literally": 5503,
      "method": 5504,
      "omaha": 5505,
      "panties": 5506,
      "enemy": 5507,
      "enormousman": 5508,
      "sneak": 5509,
      "alternate": 5510,
      "overreact": 5511,
      "blanket": 5512,
      "principle": 5513,
      "electrons": 5514,
      "fortune": 5515,
      "alex": 5516,
      "zombies": 5517,
      "bosom": 5518,
      "sighs": 5519,
      "represent": 5520,
      "ghostlyvoice": 5521,
      "gelato": 5522,
      "murder": 5523,
      "coincidence": 5524,
      "diamond": 5525,
      "costumes": 5526,
      "irrelevant": 5527,
      "symptoms": 5528,
      "europe": 5529,
      "jacuzz": 5530,
      "nonsense": 5531,
      "occup": 5532,
      "goblin": 5533,
      "hobbit": 5534,
      "prenup": 5535,
      "dvd": 5536,
      "hilarious": 5537,
      "senior": 5538,
      "sisters": 5539,
      "onofrio": 5540,
      "procedure": 5541,
      "intruder": 5542,
      "thanksgiving": 5543,
      "transporter": 5544,
      "27": 5545,
      "45": 5546,
      "aid": 5547,
      "aka": 5548,
      "bless": 5549,
      "billy": 5550,
      "cav": 5551,
      "cash": 5552,
      "curry": 5553,
      "ding": 5554,
      "dur": 5555,
      "ditch": 5556,
      "et": 5557,
      "eve": 5558,
      "este": 5559,
      "fif": 5560,
      "fert": 5561,
      "folk": 5562,
      "gau": 5563,
      "gals": 5564,
      "hol": 5565,
      "hunt": 5566,
      "id": 5567,
      "iis": 5568,
      "kathy": 5569,
      "lame": 5570,
      "lap": 5571,
      "lav": 5572,
      "mask": 5573,
      "mumb": 5574,
      "mouse": 5575,
      "nic": 5576,
      "nancy": 5577,
      "pi": 5578,
      "pon": 5579,
      "pard": 5580,
      "pir": 5581,
      "pour": 5582,
      "purs": 5583,
      "rh": 5584,
      "row": 5585,
      "rip": 5586,
      "tan": 5587,
      "ted": 5588,
      "tang": 5589,
      "tag": 5590,
      "tuck": 5591,
      "turt": 5592,
      "tied": 5593,
      "taught": 5594,
      "ut": 5595,
      "upper": 5596,
      "vill": 5597,
      "voc": 5598,
      "wre": 5599,
      "wip": 5600,
      "wakes": 5601,
      "wob": 5602,
      "wrap": 5603,
      "wrapped": 5604,
      "zar": 5605,
      "##uge": 5606,
      "##ih": 5607,
      "##ik": 5608,
      "##ience": 5609,
      "##iated": 5610,
      "##note": 5611,
      "##gun": 5612,
      "##gers": 5613,
      "##gress": 5614,
      "##han": 5615,
      "##efficient": 5616,
      "##yl": 5617,
      "##mes": 5618,
      "##made": 5619,
      "##aac": 5620,
      "##ko": 5621,
      "##cr": 5622,
      "##ca": 5623,
      "##cent": 5624,
      "##chers": 5625,
      "##coming": 5626,
      "##cription": 5627,
      "##wal": 5628,
      "##what": 5629,
      "##fah": 5630,
      "##zes": 5631,
      "##zation": 5632,
      "##ario": 5633,
      "tourn": 5634,
      "##eria": 5635,
      "##ina": 5636,
      "##inal": 5637,
      "rain": 5638,
      "##ingu": 5639,
      "thir": 5640,
      "##stood": 5641,
      "##etch": 5642,
      "##etry": 5643,
      "##ora": 5644,
      "##otch": 5645,
      "anth": 5646,
      "##omach": 5647,
      "whim": 5648,
      "whoop": 5649,
      "##ada": 5650,
      "inch": 5651,
      "ingre": 5652,
      "##isms": 5653,
      "##icist": 5654,
      "weigh": 5655,
      "##asma": 5656,
      "beam": 5657,
      "bears": 5658,
      "beloved": 5659,
      "##aler": 5660,
      "stro": 5661,
      "stage": 5662,
      "stories": 5663,
      "style": 5664,
      "staff": 5665,
      "stomach": 5666,
      "##rie": 5667,
      "##riger": 5668,
      "island": 5669,
      "isaac": 5670,
      "height": 5671,
      "hab": 5672,
      "##iders": 5673,
      "##see": 5674,
      "golf": 5675,
      "##ionship": 5676,
      "nov": 5677,
      "noise": 5678,
      "##iry": 5679,
      "##iration": 5680,
      "##irable": 5681,
      "lips": 5682,
      "donkey": 5683,
      "##urbing": 5684,
      "washed": 5685,
      "nest": 5686,
      "nephe": 5687,
      "justin": 5688,
      "##chali": 5689,
      "##child": 5690,
      "shy": 5691,
      "shoo": 5692,
      "ship": 5693,
      "shamp": 5694,
      "sharing": 5695,
      "shaped": 5696,
      "students": 5697,
      "upcoming": 5698,
      "##illstone": 5699,
      "##acks": 5700,
      "##ils": 5701,
      "##endent": 5702,
      "tear": 5703,
      "exists": 5704,
      "expens": 5705,
      "chart": 5706,
      "champ": 5707,
      "##tering": 5708,
      "spit": 5709,
      "spag": 5710,
      "spont": 5711,
      "spoke": 5712,
      "##geous": 5713,
      "##cki": 5714,
      "alarm": 5715,
      "##ops": 5716,
      "dest": 5717,
      "dece": 5718,
      "guit": 5719,
      "goodie": 5720,
      "drat": 5721,
      "drugs": 5722,
      "##alist": 5723,
      "##ushing": 5724,
      "plausible": 5725,
      "veget": 5726,
      "org": 5727,
      "someplace": 5728,
      "somewhat": 5729,
      "loving": 5730,
      "unin": 5731,
      "unfort": 5732,
      "##ffer": 5733,
      "##ffle": 5734,
      "maj": 5735,
      "maggie": 5736,
      "bold": 5737,
      "boson": 5738,
      "boggle": 5739,
      "scri": 5740,
      "scary": 5741,
      "feat": 5742,
      "precise": 5743,
      "background": 5744,
      "##erson": 5745,
      "coast": 5746,
      "armen": 5747,
      "smoke": 5748,
      "sav": 5749,
      "sale": 5750,
      "clo": 5751,
      "carp": 5752,
      "trade": 5753,
      "##oses": 5754,
      "##osop": 5755,
      "##plane": 5756,
      "bup": 5757,
      "##ifying": 5758,
      "##agues": 5759,
      "parties": 5760,
      "download": 5761,
      "holes": 5762,
      "happiness": 5763,
      "grinding": 5764,
      "chew": 5765,
      "cheek": 5766,
      "flip": 5767,
      "flush": 5768,
      "flaming": 5769,
      "disaster": 5770,
      "secure": 5771,
      "prank": 5772,
      "prison": 5773,
      "plays": 5774,
      "append": 5775,
      "intervention": 5776,
      "speccy": 5777,
      "barely": 5778,
      "##ques": 5779,
      "nicely": 5780,
      "percent": 5781,
      "quiz": 5782,
      "helps": 5783,
      "thoughts": 5784,
      "kee": 5785,
      "kevin": 5786,
      "remo": 5787,
      "coup": 5788,
      "watched": 5789,
      "moments": 5790,
      "crown": 5791,
      "crashed": 5792,
      "homemade": 5793,
      "mark": 5794,
      "march": 5795,
      "marcy": 5796,
      "handed": 5797,
      "slee": 5798,
      "##iselle": 5799,
      "##ansion": 5800,
      "serve": 5801,
      "serpent": 5802,
      "kidna": 5803,
      "##onscious": 5804,
      "attend": 5805,
      "attach": 5806,
      "afterwards": 5807,
      "difficul": 5808,
      "desire": 5809,
      "bookstore": 5810,
      "invent": 5811,
      "switc": 5812,
      "swallow": 5813,
      "terms": 5814,
      "eaten": 5815,
      "accent": 5816,
      "accurate": 5817,
      "##phant": 5818,
      "warcraft": 5819,
      "skating": 5820,
      "skyn": 5821,
      "engaging": 5822,
      "breaks": 5823,
      "expansion": 5824,
      "decisions": 5825,
      "##anky": 5826,
      "menop": 5827,
      "entr": 5828,
      "metal": 5829,
      "cuts": 5830,
      "cutting": 5831,
      "##dded": 5832,
      "register": 5833,
      "winning": 5834,
      "element": 5835,
      "similar": 5836,
      "golden": 5837,
      "screaming": 5838,
      "##ificent": 5839,
      "##ification": 5840,
      "##ificial": 5841,
      "##gestive": 5842,
      "humanity": 5843,
      "eyed": 5844,
      "##necki": 5845,
      "hopeless": 5846,
      "charming": 5847,
      "classes": 5848,
      "##orrho": 5849,
      "committed": 5850,
      "freaking": 5851,
      "dummy": 5852,
      "tests": 5853,
      "confident": 5854,
      "additional": 5855,
      "counting": 5856,
      "solve": 5857,
      "robin": 5858,
      "passing": 5859,
      "passion": 5860,
      "##brush": 5861,
      "riding": 5862,
      "concent": 5863,
      "transvest": 5864,
      "sixth": 5865,
      "disturbing": 5866,
      "aha": 5867,
      "fridge": 5868,
      "pottery": 5869,
      "payload": 5870,
      "packing": 5871,
      "packed": 5872,
      "lesson": 5873,
      "balls": 5874,
      "smells": 5875,
      "meditation": 5876,
      "changes": 5877,
      "locus": 5878,
      "located": 5879,
      "refriger": 5880,
      "slowly": 5881,
      "cleaner": 5882,
      "airplane": 5883,
      "##hetti": 5884,
      "grandchild": 5885,
      "calend": 5886,
      "pops": 5887,
      "restaurants": 5888,
      "convince": 5889,
      "meantime": 5890,
      "suitable": 5891,
      "fella": 5892,
      "197": 5893,
      "assumption": 5894,
      "harm": 5895,
      "forest": 5896,
      "panchali": 5897,
      "colleagues": 5898,
      "cycle": 5899,
      "sandra": 5900,
      "discussion": 5901,
      "detect": 5902,
      "shooting": 5903,
      "frodo": 5904,
      "turkey": 5905,
      "artificial": 5906,
      "objection": 5907,
      "increase": 5908,
      "hyper": 5909,
      "hooked": 5910,
      "necessarily": 5911,
      "succeed": 5912,
      "impressed": 5913,
      "cello": 5914,
      "fiance": 5915,
      "marshm": 5916,
      "reference": 5917,
      "photograph": 5918,
      "included": 5919,
      "sensor": 5920,
      "bullies": 5921,
      "bullock": 5922,
      "organism": 5923,
      "argue": 5924,
      "arrange": 5925,
      "servants": 5926,
      "describ": 5927,
      "burning": 5928,
      "burger": 5929,
      "sweaty": 5930,
      "magnetic": 5931,
      "magnificent": 5932,
      "bothering": 5933,
      "arrive": 5934,
      "booty": 5935,
      "fraud": 5936,
      "webc": 5937,
      "combination": 5938,
      "lobster": 5939,
      "contains": 5940,
      "celebrate": 5941,
      "bonding": 5942,
      "galact": 5943,
      "grief": 5944,
      "beaten": 5945,
      "employee": 5946,
      "satisfying": 5947,
      "causing": 5948,
      "fantasy": 5949,
      "multip": 5950,
      "##door": 5951,
      "cultures": 5952,
      "incredibly": 5953,
      "casual": 5954,
      "essentially": 5955,
      "higher": 5956,
      "development": 5957,
      "drmillstone": 5958,
      "electricity": 5959,
      "film": 5960,
      "vari": 5961,
      "various": 5962,
      "##mbly": 5963,
      "socks": 5964,
      "suffered": 5965,
      "telephone": 5966,
      "climb": 5967,
      "accomplished": 5968,
      "darn": 5969,
      "weapons": 5970,
      "dragon": 5971,
      "gorgeous": 5972,
      "license": 5973,
      "midnight": 5974,
      "split": 5975,
      "critic": 5976,
      "axe": 5977,
      "escape": 5978,
      "bobcat": 5979,
      "monopoles": 5980,
      "circumst": 5981,
      "dictates": 5982,
      "sheldor": 5983,
      "hammer": 5984,
      "scenario": 5985,
      "slumber": 5986,
      "separate": 5987,
      "negative": 5988,
      "convinced": 5989,
      "grossman": 5990,
      "hemorrho": 5991,
      "empire": 5992,
      "criminal": 5993,
      "audition": 5994,
      "google": 5995,
      "pitcher": 5996,
      "italian": 5997,
      "shredded": 5998,
      "integrity": 5999,
      "philosop": 6000,
      "compromise": 6001,
      "laboratory": 6002,
      "immediately": 6003,
      "fabric": 6004,
      "mattress": 6005,
      "##heimer": 6006,
      "toothbrush": 6007,
      "stereo": 6008,
      "arrogant": 6009,
      "disgusting": 6010,
      "gloves": 6011,
      "genitals": 6012,
      "commitment": 6013,
      "valuable": 6014,
      "hygiene": 6015,
      "misunderstanding": 6016,
      "privilege": 6017,
      "whispering": 6018,
      "acknowledge": 6019,
      "astrophysicist": 6020,
      "asthma": 6021,
      "nickname": 6022,
      "nuclear": 6023,
      "avenue": 6024,
      "furniture": 6025,
      "seventh": 6026,
      "chatting": 6027,
      "guarantee": 6028,
      "unusual": 6029,
      "grasshopper": 6030,
      "barbecue": 6031,
      "hypothetical": 6032,
      "esteem": 6033,
      "fifth": 6034,
      "gauge": 6035,
      "mumbai": 6036,
      "zarnecki": 6037,
      "anthrop": 6038,
      "ingredi": 6039,
      "nephew": 6040,
      "shampoo": 6041,
      "spaghetti": 6042,
      "unfortun": 6043,
      "difficulty": 6044,
      "skynet": 6045,
      "transvestite": 6046,
      "26": 6047,
      "22": 6048,
      "70": 6049,
      "73": 6050,
      "800": 6051,
      "95": 6052,
      "93": 6053,
      "ain": 6054,
      "aver": 6055,
      "bon": 6056,
      "bang": 6057,
      "beng": 6058,
      "cern": 6059,
      "cul": 6060,
      "cath": 6061,
      "ded": 6062,
      "doo": 6063,
      "dess": 6064,
      "dud": 6065,
      "dork": 6066,
      "eb": 6067,
      "eth": 6068,
      "eag": 6069,
      "etern": 6070,
      "fou": 6071,
      "fried": 6072,
      "gim": 6073,
      "gate": 6074,
      "gum": 6075,
      "gain": 6076,
      "gown": 6077,
      "goose": 6078,
      "gather": 6079,
      "hound": 6080,
      "hors": 6081,
      "hits": 6082,
      "hats": 6083,
      "hidden": 6084,
      "kicking": 6085,
      "lin": 6086,
      "lis": 6087,
      "lion": 6088,
      "mall": 6089,
      "mast": 6090,
      "mitz": 6091,
      "moth": 6092,
      "nit": 6093,
      "nim": 6094,
      "native": 6095,
      "nails": 6096,
      "oct": 6097,
      "ostr": 6098,
      "pills": 6099,
      "ren": 6100,
      "rot": 6101,
      "rut": 6102,
      "rise": 6103,
      "rib": 6104,
      "rena": 6105,
      "sin": 6106,
      "sinc": 6107,
      "ty": 6108,
      "tin": 6109,
      "tac": 6110,
      "tail": 6111,
      "tush": 6112,
      "ticket": 6113,
      "tape": 6114,
      "tyson": 6115,
      "ves": 6116,
      "vision": 6117,
      "wide": 6118,
      "wire": 6119,
      "yup": 6120,
      "ze": 6121,
      "##uri": 6122,
      "##ube": 6123,
      "##iat": 6124,
      "##iom": 6125,
      "##iac": 6126,
      "##iate": 6127,
      "##iance": 6128,
      "##ioc": 6129,
      "##lers": 6130,
      "##nel": 6131,
      "##nox": 6132,
      "##gal": 6133,
      "##ghed": 6134,
      "##overs": 6135,
      "##oons": 6136,
      "##si": 6137,
      "##sis": 6138,
      "##rit": 6139,
      "##ris": 6140,
      "##rine": 6141,
      "##rup": 6142,
      "##pa": 6143,
      "##pret": 6144,
      "##moot": 6145,
      "##mint": 6146,
      "##mare": 6147,
      "##dle": 6148,
      "##dess": 6149,
      "##ailed": 6150,
      "##kum": 6151,
      "##kins": 6152,
      "##xi": 6153,
      "##xill": 6154,
      "##cing": 6155,
      "##cre": 6156,
      "##wom": 6157,
      "##want": 6158,
      "##bow": 6159,
      "##bal": 6160,
      "##bra": 6161,
      "##bag": 6162,
      "##bird": 6163,
      "##bian": 6164,
      "##vill": 6165,
      "##fy": 6166,
      "##fa": 6167,
      "##fish": 6168,
      "##field": 6169,
      "##father": 6170,
      "##ona": 6171,
      "##oning": 6172,
      "##arb": 6173,
      "##ares": 6174,
      "toler": 6175,
      "lev": 6176,
      "lemon": 6177,
      "leng": 6178,
      "sheep": 6179,
      "##enheimer": 6180,
      "##ouch": 6181,
      "##erge": 6182,
      "##inet": 6183,
      "##athe": 6184,
      "##atomic": 6185,
      "therap": 6186,
      "theories": 6187,
      "thesis": 6188,
      "##etooth": 6189,
      "##eters": 6190,
      "##othing": 6191,
      "##otics": 6192,
      "##others": 6193,
      "##lection": 6194,
      "item": 6195,
      "##ede": 6196,
      "##eding": 6197,
      "##edes": 6198,
      "wha": 6199,
      "whoo": 6200,
      "inqu": 6201,
      "instr": 6202,
      "instruct": 6203,
      "##ays": 6204,
      "##ications": 6205,
      "weather": 6206,
      "wealthy": 6207,
      "##asse": 6208,
      "##utter": 6209,
      "bean": 6210,
      "beast": 6211,
      "begging": 6212,
      "beaver": 6213,
      "stall": 6214,
      "stol": 6215,
      "stem": 6216,
      "stool": 6217,
      "storm": 6218,
      "straw": 6219,
      "##rix": 6220,
      "hein": 6221,
      "health": 6222,
      "whatso": 6223,
      "dopp": 6224,
      "dovey": 6225,
      "myster": 6226,
      "##seum": 6227,
      "##section": 6228,
      "forfe": 6229,
      "noble": 6230,
      "novel": 6231,
      "##irm": 6232,
      "sem": 6233,
      "semi": 6234,
      "select": 6235,
      "search": 6236,
      "##pps": 6237,
      "##ppity": 6238,
      "##ustion": 6239,
      "soph": 6240,
      "sofa": 6241,
      "##rav": 6242,
      "##ramm": 6243,
      "neener": 6244,
      "##amel": 6245,
      "##chair": 6246,
      "asian": 6247,
      "suic": 6248,
      "suited": 6249,
      "##abet": 6250,
      "shat": 6251,
      "shared": 6252,
      "shape": 6253,
      "upside": 6254,
      "##illed": 6255,
      "##ilis": 6256,
      "##nderson": 6257,
      "##oodles": 6258,
      "moot": 6259,
      "tears": 6260,
      "temp": 6261,
      "tequil": 6262,
      "therefore": 6263,
      "##aunt": 6264,
      "##auwant": 6265,
      "spoon": 6266,
      "##cked": 6267,
      "##opard": 6268,
      "deploy": 6269,
      "guide": 6270,
      "gunderson": 6271,
      "comments": 6272,
      "##inder": 6273,
      "conver": 6274,
      "conven": 6275,
      "concept": 6276,
      "condu": 6277,
      "##oused": 6278,
      "##alia": 6279,
      "##alize": 6280,
      "##usi": 6281,
      "plum": 6282,
      "plumb": 6283,
      "##isted": 6284,
      "##ulating": 6285,
      "vexill": 6286,
      "proxim": 6287,
      "##mented": 6288,
      "ros": 6289,
      "robert": 6290,
      "enth": 6291,
      "unra": 6292,
      "lesbian": 6293,
      "scar": 6294,
      "scare": 6295,
      "scrot": 6296,
      "intended": 6297,
      "##icked": 6298,
      "feature": 6299,
      "pregn": 6300,
      "##ership": 6301,
      "coke": 6302,
      "covers": 6303,
      "##active": 6304,
      "##akers": 6305,
      "managed": 6306,
      "grease": 6307,
      "needy": 6308,
      "nightmare": 6309,
      "##napps": 6310,
      "##bled": 6311,
      "##izard": 6312,
      "apoc": 6313,
      "##issance": 6314,
      "clin": 6315,
      "cluck": 6316,
      "becoming": 6317,
      "carried": 6318,
      "carnal": 6319,
      "track": 6320,
      "truck": 6321,
      "trunk": 6322,
      "twin": 6323,
      "##ogy": 6324,
      "##thr": 6325,
      "buh": 6326,
      "bub": 6327,
      "##ifi": 6328,
      "greater": 6329,
      "##angers": 6330,
      "##agon": 6331,
      "theme": 6332,
      "bruce": 6333,
      "##dest": 6334,
      "beverly": 6335,
      "everywhere": 6336,
      "hired": 6337,
      "hokum": 6338,
      "flow": 6339,
      "flies": 6340,
      "flames": 6341,
      "disord": 6342,
      "prince": 6343,
      "appli": 6344,
      "interaction": 6345,
      "##ishly": 6346,
      "asses": 6347,
      "helmet": 6348,
      "wrath": 6349,
      "firm": 6350,
      "goddess": 6351,
      "adam": 6352,
      "adult": 6353,
      "lovey": 6354,
      "##quate": 6355,
      "quint": 6356,
      "quirk": 6357,
      "thoughtful": 6358,
      "related": 6359,
      "crush": 6360,
      "homework": 6361,
      "slur": 6362,
      "slices": 6363,
      "pointing": 6364,
      "contra": 6365,
      "contract": 6366,
      "betty": 6367,
      "breath": 6368,
      "##nerable": 6369,
      "understandable": 6370,
      "laughed": 6371,
      "served": 6372,
      "paras": 6373,
      "parade": 6374,
      "parrot": 6375,
      "matrix": 6376,
      "##ocent": 6377,
      "physi": 6378,
      "compar": 6379,
      "##onsider": 6380,
      "attached": 6381,
      "drives": 6382,
      "obnox": 6383,
      "owner": 6384,
      "financ": 6385,
      "strings": 6386,
      "humans": 6387,
      "##udge": 6388,
      "swing": 6389,
      "loofah": 6390,
      "picks": 6391,
      "cater": 6392,
      "hopes": 6393,
      "skis": 6394,
      "skull": 6395,
      "mustard": 6396,
      "syrup": 6397,
      "planets": 6398,
      "busboy": 6399,
      "personally": 6400,
      "england": 6401,
      "cooler": 6402,
      "supermark": 6403,
      "bitches": 6404,
      "##ibi": 6405,
      "##print": 6406,
      "movement": 6407,
      "harder": 6408,
      "exposed": 6409,
      "subc": 6410,
      "subatomic": 6411,
      "schnapps": 6412,
      "complaint": 6413,
      "menial": 6414,
      "remembered": 6415,
      "snake": 6416,
      "snee": 6417,
      "consum": 6418,
      "cutie": 6419,
      "incor": 6420,
      "wins": 6421,
      "killer": 6422,
      "lighting": 6423,
      "prescription": 6424,
      "polite": 6425,
      "polish": 6426,
      "dealing": 6427,
      "damaged": 6428,
      "christian": 6429,
      "answered": 6430,
      "trained": 6431,
      "##ropy": 6432,
      "classified": 6433,
      "command": 6434,
      "saturn": 6435,
      "clearance": 6436,
      "douche": 6437,
      "tomato": 6438,
      "teams": 6439,
      "centers": 6440,
      "insu": 6441,
      "insight": 6442,
      "repro": 6443,
      "repair": 6444,
      "testicles": 6445,
      "bathing": 6446,
      "##lined": 6447,
      "steel": 6448,
      "solar": 6449,
      "##brows": 6450,
      "ridge": 6451,
      "georges": 6452,
      "##grad": 6453,
      "doctorate": 6454,
      "distrib": 6455,
      "promises": 6456,
      "fries": 6457,
      "advance": 6458,
      "equal": 6459,
      "secrets": 6460,
      "memor": 6461,
      "##otted": 6462,
      "muscle": 6463,
      "muscles": 6464,
      "bio": 6465,
      "floss": 6466,
      "##appy": 6467,
      "offering": 6468,
      "closest": 6469,
      "##bara": 6470,
      "proposal": 6471,
      "smelled": 6472,
      "oppenheimer": 6473,
      "refres": 6474,
      "refuse": 6475,
      "reflect": 6476,
      "handsome": 6477,
      "120": 6478,
      "troubling": 6479,
      "growth": 6480,
      "grandfather": 6481,
      "professional": 6482,
      "computervoice": 6483,
      "largest": 6484,
      "military": 6485,
      "pope": 6486,
      "groups": 6487,
      "cuis": 6488,
      "approved": 6489,
      "approxim": 6490,
      "approaches": 6491,
      "controll": 6492,
      "leader": 6493,
      "leadership": 6494,
      "protection": 6495,
      "sentence": 6496,
      "originally": 6497,
      "alcoholic": 6498,
      "puzz": 6499,
      "puppy": 6500,
      "caption": 6501,
      "198": 6502,
      "sticker": 6503,
      "cryst": 6504,
      "eyebrows": 6505,
      "fixed": 6506,
      "lego": 6507,
      "legal": 6508,
      "software": 6509,
      "loses": 6510,
      "colleague": 6511,
      "faces": 6512,
      "facility": 6513,
      "hypo": 6514,
      "squat": 6515,
      "squared": 6516,
      "covering": 6517,
      "mistakes": 6518,
      "texted": 6519,
      "discussed": 6520,
      "psychiat": 6521,
      "options": 6522,
      "optional": 6523,
      "fails": 6524,
      "typical": 6525,
      "stole": 6526,
      "romul": 6527,
      "neuros": 6528,
      "practically": 6529,
      "crushes": 6530,
      "##cony": 6531,
      "button": 6532,
      "impression": 6533,
      "cells": 6534,
      "drove": 6535,
      "statistically": 6536,
      "screensheldon": 6537,
      "affection": 6538,
      "purch": 6539,
      "replaced": 6540,
      "butterfly": 6541,
      "photos": 6542,
      "ergo": 6543,
      "museum": 6544,
      "selling": 6545,
      "attracted": 6546,
      "connect": 6547,
      "connection": 6548,
      "connected": 6549,
      "discount": 6550,
      "postp": 6551,
      "describe": 6552,
      "accomp": 6553,
      "burst": 6554,
      "sweatpants": 6555,
      "nerds": 6556,
      "westauwant": 6557,
      "appearance": 6558,
      "galax": 6559,
      "jumping": 6560,
      "punched": 6561,
      "candle": 6562,
      "dispro": 6563,
      "disposal": 6564,
      "korea": 6565,
      "petri": 6566,
      "prevent": 6567,
      "mutual": 6568,
      "required": 6569,
      "intimate": 6570,
      "intimacy": 6571,
      "##lescent": 6572,
      "deny": 6573,
      "##phere": 6574,
      "conditions": 6575,
      "temperatures": 6576,
      "21st": 6577,
      "achieve": 6578,
      "determin": 6579,
      "higgs": 6580,
      "liquor": 6581,
      "heroes": 6582,
      "recognition": 6583,
      "greece": 6584,
      "identify": 6585,
      "wheelchair": 6586,
      "praying": 6587,
      "occasionally": 6588,
      "reinforce": 6589,
      "allergic": 6590,
      "peanut": 6591,
      "clarify": 6592,
      "bluetooth": 6593,
      "competition": 6594,
      "terminators": 6595,
      "customer": 6596,
      "tuna": 6597,
      "tickets": 6598,
      "taxi": 6599,
      "victor": 6600,
      "wasting": 6601,
      "sundae": 6602,
      "interrupting": 6603,
      "critical": 6604,
      "humiliating": 6605,
      "balcony": 6606,
      "oxy": 6607,
      "ambig": 6608,
      "primary": 6609,
      "obligated": 6610,
      "##structor": 6611,
      "wingman": 6612,
      "sheldn": 6613,
      "peppermint": 6614,
      "occurred": 6615,
      "threatened": 6616,
      "several": 6617,
      "barnett": 6618,
      "delivered": 6619,
      "duty": 6620,
      "garage": 6621,
      "##keleton": 6622,
      "shouting": 6623,
      "superpowers": 6624,
      "hawaii": 6625,
      "dynamite": 6626,
      "galleria": 6627,
      "vomit": 6628,
      "##leneck": 6629,
      "innocent": 6630,
      "received": 6631,
      "##alypt": 6632,
      "academic": 6633,
      "centrifuge": 6634,
      "emotionally": 6635,
      "accomplishment": 6636,
      "bacteria": 6637,
      "gamma": 6638,
      "measuring": 6639,
      "assembly": 6640,
      "cholera": 6641,
      "grasp": 6642,
      "umbrella": 6643,
      "trivia": 6644,
      "satellite": 6645,
      "squeeze": 6646,
      "civil": 6647,
      "goofy": 6648,
      "ninth": 6649,
      "rendered": 6650,
      "ugly": 6651,
      "unhappy": 6652,
      "arguing": 6653,
      "##ographed": 6654,
      "permission": 6655,
      "permanent": 6656,
      "jewelry": 6657,
      "hydrogen": 6658,
      "##hythm": 6659,
      "motorcycle": 6660,
      "exhausted": 6661,
      "jacuzzi": 6662,
      "iisvoice": 6663,
      "pardon": 6664,
      "turtleneck": 6665,
      "tournament": 6666,
      "spontaneous": 6667,
      "guitar": 6668,
      "vegetable": 6669,
      "appendix": 6670,
      "switched": 6671,
      "entrance": 6672,
      "grandchildren": 6673,
      "calendar": 6674,
      "webcam": 6675,
      "galactica": 6676,
      "circumstances": 6677,
      "average": 6678,
      "dessert": 6679,
      "gimme": 6680,
      "horses": 6681,
      "nimoy": 6682,
      "renaissance": 6683,
      "length": 6684,
      "stolen": 6685,
      "whatsoever": 6686,
      "doppler": 6687,
      "tempor": 6688,
      "tequila": 6689,
      "vexillology": 6690,
      "enthusi": 6691,
      "pregnant": 6692,
      "quirky": 6693,
      "obnoxious": 6694,
      "financial": 6695,
      "supermarket": 6696,
      "georgesmoot": 6697,
      "06": 6698,
      "37": 6699,
      "35": 6700,
      "bin": 6701,
      "bart": 6702,
      "bree": 6703,
      "bage": 6704,
      "bish": 6705,
      "baseball": 6706,
      "bones": 6707,
      "bench": 6708,
      "cin": 6709,
      "cab": 6710,
      "cure": 6711,
      "cried": 6712,
      "csi": 6713,
      "dirt": 6714,
      "dwar": 6715,
      "eq": 6716,
      "ez": 6717,
      "eid": 6718,
      "euc": 6719,
      "fuel": 6720,
      "gest": 6721,
      "groom": 6722,
      "gates": 6723,
      "gaming": 6724,
      "giselle": 6725,
      "han": 6726,
      "hill": 6727,
      "hoot": 6728,
      "hip": 6729,
      "hated": 6730,
      "horm": 6731,
      "hips": 6732,
      "iced": 6733,
      "jam": 6734,
      "jul": 6735,
      "jenn": 6736,
      "jiggling": 6737,
      "kw": 6738,
      "ken": 6739,
      "kand": 6740,
      "kong": 6741,
      "kos": 6742,
      "kung": 6743,
      "lou": 6744,
      "lac": 6745,
      "lam": 6746,
      "lake": 6747,
      "linc": 6748,
      "lumin": 6749,
      "moo": 6750,
      "mand": 6751,
      "mute": 6752,
      "mush": 6753,
      "masc": 6754,
      "mortal": 6755,
      "nun": 6756,
      "nude": 6757,
      "npr": 6758,
      "ore": 6759,
      "oly": 6760,
      "oil": 6761,
      "overn": 6762,
      "ps": 6763,
      "pv": 6764,
      "por": 6765,
      "pher": 6766,
      "pool": 6767,
      "pork": 6768,
      "pinky": 6769,
      "rick": 6770,
      "rider": 6771,
      "sant": 6772,
      "south": 6773,
      "sides": 6774,
      "tat": 6775,
      "tet": 6776,
      "tav": 6777,
      "tiger": 6778,
      "uv": 6779,
      "uter": 6780,
      "vap": 6781,
      "vamp": 6782,
      "void": 6783,
      "vines": 6784,
      "voil": 6785,
      "wid": 6786,
      "wack": 6787,
      "wise": 6788,
      "witches": 6789,
      "wishes": 6790,
      "wizard": 6791,
      "zi": 6792,
      "zing": 6793,
      "zoo": 6794,
      "##uan": 6795,
      "##ught": 6796,
      "##uations": 6797,
      "##iar": 6798,
      "##iet": 6799,
      "##lock": 6800,
      "##locks": 6801,
      "##logy": 6802,
      "##tz": 6803,
      "##town": 6804,
      "##ties": 6805,
      "##tail": 6806,
      "##tub": 6807,
      "##tuce": 6808,
      "##tube": 6809,
      "##nard": 6810,
      "##gent": 6811,
      "##gain": 6812,
      "##hill": 6813,
      "##hop": 6814,
      "##hag": 6815,
      "##hatt": 6816,
      "##oard": 6817,
      "##sa": 6818,
      "##set": 6819,
      "##spr": 6820,
      "##ebe": 6821,
      "##eled": 6822,
      "##rum": 6823,
      "##rating": 6824,
      "##yal": 6825,
      "##path": 6826,
      "##point": 6827,
      "##making": 6828,
      "##mail": 6829,
      "##dom": 6830,
      "##down": 6831,
      "##draw": 6832,
      "##apt": 6833,
      "##aire": 6834,
      "##aze": 6835,
      "##kim": 6836,
      "##cil": 6837,
      "##cus": 6838,
      "##cos": 6839,
      "##with": 6840,
      "##word": 6841,
      "##wash": 6842,
      "##ban": 6843,
      "##bid": 6844,
      "##bac": 6845,
      "##bies": 6846,
      "##bding": 6847,
      "##bby": 6848,
      "##biting": 6849,
      "##brid": 6850,
      "##va": 6851,
      "##vol": 6852,
      "##vish": 6853,
      "##fall": 6854,
      "##ford": 6855,
      "##form": 6856,
      "##jay": 6857,
      "##onin": 6858,
      "##oned": 6859,
      "##once": 6860,
      "##arium": 6861,
      "##here": 6862,
      "##hest": 6863,
      "toe": 6864,
      "toot": 6865,
      "tour": 6866,
      "towards": 6867,
      "leopo": 6868,
      "shelf": 6869,
      "##erule": 6870,
      "##ini": 6871,
      "##inent": 6872,
      "youtube": 6873,
      "raw": 6874,
      "ramp": 6875,
      "penic": 6876,
      "##atar": 6877,
      "thy": 6878,
      "##llen": 6879,
      "##ete": 6880,
      "##etime": 6881,
      "##orith": 6882,
      "##ito": 6883,
      "##itations": 6884,
      "##itoring": 6885,
      "##otes": 6886,
      "##otonin": 6887,
      "##edian": 6888,
      "##ometer": 6889,
      "whip": 6890,
      "inj": 6891,
      "inher": 6892,
      "institute": 6893,
      "inability": 6894,
      "##esa": 6895,
      "##isy": 6896,
      "##iscu": 6897,
      "##isco": 6898,
      "reven": 6899,
      "react": 6900,
      "wee": 6901,
      "weep": 6902,
      "##ashing": 6903,
      "##uto": 6904,
      "beg": 6905,
      "began": 6906,
      "begged": 6907,
      "stim": 6908,
      "stab": 6909,
      "stood": 6910,
      "stip": 6911,
      "stret": 6912,
      "stamm": 6913,
      "healthy": 6914,
      "##ettes": 6915,
      "##kee": 6916,
      "##idriver": 6917,
      "doin": 6918,
      "doct": 6919,
      "##acel": 6920,
      "mystic": 6921,
      "fork": 6922,
      "withdraw": 6923,
      "yourselves": 6924,
      "##imedes": 6925,
      "##irs": 6926,
      "##iring": 6927,
      "##irting": 6928,
      "lip": 6929,
      "selection": 6930,
      "##urer": 6931,
      "##urally": 6932,
      "##urance": 6933,
      "herself": 6934,
      "sodium": 6935,
      "knees": 6936,
      "##roid": 6937,
      "cans": 6938,
      "neil": 6939,
      "##ami": 6940,
      "##amiliar": 6941,
      "##astically": 6942,
      "##ief": 6943,
      "##iece": 6944,
      "##oln": 6945,
      "##olved": 6946,
      "sulf": 6947,
      "sufficient": 6948,
      "##outs": 6949,
      "##abox": 6950,
      "shr": 6951,
      "shock": 6952,
      "shush": 6953,
      "shield": 6954,
      "abuse": 6955,
      "aboard": 6956,
      "##ryl": 6957,
      "##ctions": 6958,
      "atom": 6959,
      "whee": 6960,
      "outs": 6961,
      "outer": 6962,
      "outstanding": 6963,
      "##illin": 6964,
      "righty": 6965,
      "##ilit": 6966,
      "##ilate": 6967,
      "##endale": 6968,
      "exception": 6969,
      "exotic": 6970,
      "theremin": 6971,
      "##aul": 6972,
      "chain": 6973,
      "chilly": 6974,
      "choke": 6975,
      "chitch": 6976,
      "##ateg": 6977,
      "spo": 6978,
      "spect": 6979,
      "spray": 6980,
      "alf": 6981,
      "alumin": 6982,
      "##umn": 6983,
      "##opath": 6984,
      "gupt": 6985,
      "worn": 6986,
      "goodby": 6987,
      "comedy": 6988,
      "drank": 6989,
      "conse": 6990,
      "conde": 6991,
      "construction": 6992,
      "##uses": 6993,
      "plant": 6994,
      "plasma": 6995,
      "pluto": 6996,
      "##igated": 6997,
      "##ittee": 6998,
      "##uling": 6999,
      "##ulated": 7000,
      "lets": 7001,
      "lettuce": 7002,
      "prove": 7003,
      "prospect": 7004,
      "orbiting": 7005,
      "anyways": 7006,
      "##ysis": 7007,
      "rode": 7008,
      "robles": 7009,
      "loom": 7010,
      "lover": 7011,
      "envy": 7012,
      "union": 7013,
      "unable": 7014,
      "unple": 7015,
      "unne": 7016,
      "unified": 7017,
      "unkn": 7018,
      "user": 7019,
      "score": 7020,
      "femin": 7021,
      "precious": 7022,
      "willi": 7023,
      "pod": 7024,
      "cogn": 7025,
      "coccy": 7026,
      "coefficient": 7027,
      "coerule": 7028,
      "##actory": 7029,
      "manhatt": 7030,
      "manwith": 7031,
      "hadron": 7032,
      "arbit": 7033,
      "##ipe": 7034,
      "##berately": 7035,
      "smugg": 7036,
      "smiling": 7037,
      "pea": 7038,
      "peach": 7039,
      "pecul": 7040,
      "##nag": 7041,
      "##izational": 7042,
      "ape": 7043,
      "saving": 7044,
      "clown": 7045,
      "clothing": 7046,
      "overc": 7047,
      "carl": 7048,
      "caramel": 7049,
      "tray": 7050,
      "##ogenic": 7051,
      "acts": 7052,
      "##agious": 7053,
      "##agger": 7054,
      "surely": 7055,
      "blend": 7056,
      "blocks": 7057,
      "##west": 7058,
      "brothers": 7059,
      "downstairs": 7060,
      "downtown": 7061,
      "emerge": 7062,
      "hollow": 7063,
      "dile": 7064,
      "direction": 7065,
      "digestive": 7066,
      "cheating": 7067,
      "undert": 7068,
      "underpants": 7069,
      "understood": 7070,
      "fling": 7071,
      "disre": 7072,
      "proof": 7073,
      "pleased": 7074,
      "##eman": 7075,
      "interd": 7076,
      "interpret": 7077,
      "assorted": 7078,
      "assigned": 7079,
      "spear": 7080,
      "speci": 7081,
      "##ested": 7082,
      "bark": 7083,
      "bargain": 7084,
      "joe": 7085,
      "reser": 7086,
      "resident": 7087,
      "residual": 7088,
      "##ologically": 7089,
      "##ologists": 7090,
      "qual": 7091,
      "afk": 7092,
      "keen": 7093,
      "biggest": 7094,
      "##icals": 7095,
      "##box": 7096,
      "remote": 7097,
      "relative": 7098,
      "cran": 7099,
      "slide": 7100,
      "slugg": 7101,
      "glob": 7102,
      "glendale": 7103,
      "marvel": 7104,
      "contagious": 7105,
      "pretending": 7106,
      "monitoring": 7107,
      "showcase": 7108,
      "server": 7109,
      "serving": 7110,
      "serotonin": 7111,
      "beings": 7112,
      "parall": 7113,
      "paraph": 7114,
      "imply": 7115,
      "impact": 7116,
      "##ocate": 7117,
      "doorbell": 7118,
      "compared": 7119,
      "moral": 7120,
      "badly": 7121,
      "##urton": 7122,
      "sounded": 7123,
      "headph": 7124,
      "minus": 7125,
      "invis": 7126,
      "strangers": 7127,
      "humming": 7128,
      "pickle": 7129,
      "older": 7130,
      "catwom": 7131,
      "holds": 7132,
      "experiments": 7133,
      "creature": 7134,
      "dinfast": 7135,
      "differently": 7136,
      "pale": 7137,
      "##zech": 7138,
      "skyp": 7139,
      "persp": 7140,
      "symb": 7141,
      "genev": 7142,
      "genetically": 7143,
      "signs": 7144,
      "##ensive": 7145,
      "##ensitive": 7146,
      "restrain": 7147,
      "surface": 7148,
      "lax": 7149,
      "lawn": 7150,
      "laura": 7151,
      "personality": 7152,
      "breakthr": 7153,
      "biting": 7154,
      "ending": 7155,
      "waltz": 7156,
      "expand": 7157,
      "subst": 7158,
      "submar": 7159,
      "##cessary": 7160,
      "snick": 7161,
      "labrad": 7162,
      "region": 7163,
      "geology": 7164,
      "stores": 7165,
      "explod": 7166,
      "elephant": 7167,
      "##cially": 7168,
      "magical": 7169,
      "knocked": 7170,
      "brobding": 7171,
      "rocks": 7172,
      "entering": 7173,
      "luckily": 7174,
      "ruled": 7175,
      "foundation": 7176,
      "collider": 7177,
      "answering": 7178,
      "universes": 7179,
      "chicks": 7180,
      "chickens": 7181,
      "topics": 7182,
      "committee": 7183,
      "bathtub": 7184,
      "freeze": 7185,
      "freezer": 7186,
      "infection": 7187,
      "figures": 7188,
      "shoe": 7189,
      "reprog": 7190,
      "tested": 7191,
      "battery": 7192,
      "##unky": 7193,
      "uncalled": 7194,
      "unconscious": 7195,
      "##lina": 7196,
      "##liness": 7197,
      "solo": 7198,
      "solid": 7199,
      "traveling": 7200,
      "defcon": 7201,
      "##sterical": 7202,
      "dressing": 7203,
      "transm": 7204,
      "disturb": 7205,
      "distinct": 7206,
      "distingu": 7207,
      "shotgun": 7208,
      "potion": 7209,
      "indiana": 7210,
      "meme": 7211,
      "##otten": 7212,
      "trim": 7213,
      "trial": 7214,
      "trium": 7215,
      "suggested": 7216,
      "terrified": 7217,
      "birdie": 7218,
      "lasers": 7219,
      "medal": 7220,
      "patch": 7221,
      "locate": 7222,
      "avatar": 7223,
      "limo": 7224,
      "motel": 7225,
      "motiv": 7226,
      "smaller": 7227,
      "records": 7228,
      "jews": 7229,
      "americans": 7230,
      "powerful": 7231,
      "models": 7232,
      "modify": 7233,
      "urinate": 7234,
      "condoms": 7235,
      "explains": 7236,
      "dreamed": 7237,
      "larry": 7238,
      "messages": 7239,
      "nerve": 7240,
      "drawn": 7241,
      "##ugal": 7242,
      "apparent": 7243,
      "##bbing": 7244,
      "tricky": 7245,
      "controlled": 7246,
      "generally": 7247,
      "horny": 7248,
      "protest": 7249,
      "imagination": 7250,
      "troubled": 7251,
      "formula": 7252,
      "199": 7253,
      "angelina": 7254,
      "characters": 7255,
      "15th": 7256,
      "capital": 7257,
      "crossbow": 7258,
      "fields": 7259,
      "foreplay": 7260,
      "ratt": 7261,
      "rats": 7262,
      "embarrassment": 7263,
      "cops": 7264,
      "exceed": 7265,
      "joining": 7266,
      "catching": 7267,
      "cyb": 7268,
      "texting": 7269,
      "psychotic": 7270,
      "detailed": 7271,
      "millions": 7272,
      "millstone": 7273,
      "salt": 7274,
      "disappear": 7275,
      "posit": 7276,
      "supportive": 7277,
      "tattoos": 7278,
      "listed": 7279,
      "objects": 7280,
      "involving": 7281,
      "involves": 7282,
      "curie": 7283,
      "cries": 7284,
      "hysterical": 7285,
      "juven": 7286,
      "ants": 7287,
      "effects": 7288,
      "booze": 7289,
      "brave": 7290,
      "sacks": 7291,
      "##matic": 7292,
      "referred": 7293,
      "static": 7294,
      "kicked": 7295,
      "wildebe": 7296,
      "activated": 7297,
      "activities": 7298,
      "geniuses": 7299,
      "104": 7300,
      "connor": 7301,
      "bullet": 7302,
      "flatland": 7303,
      "triple": 7304,
      "organizational": 7305,
      "arrow": 7306,
      "descend": 7307,
      "jackson": 7308,
      "torn": 7309,
      "tormented": 7310,
      "observe": 7311,
      "observed": 7312,
      "ruining": 7313,
      "daily": 7314,
      "deeply": 7315,
      "officially": 7316,
      "irish": 7317,
      "mixed": 7318,
      "deliberately": 7319,
      "improv": 7320,
      "improvement": 7321,
      "snowy": 7322,
      "radioactive": 7323,
      "bonds": 7324,
      "grilled": 7325,
      "punish": 7326,
      "printer": 7327,
      "marketing": 7328,
      "sanjay": 7329,
      "venge": 7330,
      "logic": 7331,
      "previously": 7332,
      "meaningless": 7333,
      "paradox": 7334,
      "satisfy": 7335,
      "aquari": 7336,
      "nether": 7337,
      "magazines": 7338,
      "delightfully": 7339,
      "violate": 7340,
      "denial": 7341,
      "dangerous": 7342,
      "##cutive": 7343,
      "analysis": 7344,
      "notebook": 7345,
      "##ography": 7346,
      "marrying": 7347,
      "achievement": 7348,
      "highest": 7349,
      "install": 7350,
      "heroic": 7351,
      "suffer": 7352,
      "telepath": 7353,
      "chuckles": 7354,
      "chuckling": 7355,
      "cockam": 7356,
      "cocktail": 7357,
      "implications": 7358,
      "evolved": 7359,
      "colorado": 7360,
      "fingerprint": 7361,
      "journal": 7362,
      "purell": 7363,
      "portion": 7364,
      "river": 7365,
      "intolerance": 7366,
      "divide": 7367,
      "divorce": 7368,
      "dragons": 7369,
      "customary": 7370,
      "patterns": 7371,
      "bounce": 7372,
      "gorilla": 7373,
      "tunnel": 7374,
      "taxidriver": 7375,
      "suspicious": 7376,
      "premature": 7377,
      "contributions": 7378,
      "humiliated": 7379,
      "suggestions": 7380,
      "johnson": 7381,
      "axiom": 7382,
      "ceremony": 7383,
      "falcon": 7384,
      "mcgar": 7385,
      "oxnard": 7386,
      "beyonce": 7387,
      "doomed": 7388,
      "primates": 7389,
      "mobster": 7390,
      "exhib": 7391,
      "humorous": 7392,
      "vulcan": 7393,
      "vulnerable": 7394,
      "shiks": 7395,
      "defeat": 7396,
      "scanner": 7397,
      "hippies": 7398,
      "fluid": 7399,
      "acquaint": 7400,
      "adjust": 7401,
      "slumdog": 7402,
      "performing": 7403,
      "collectible": 7404,
      "possession": 7405,
      "abandoning": 7406,
      "opa": 7407,
      "chaos": 7408,
      "spoiler": 7409,
      "uniforms": 7410,
      "transportation": 7411,
      "convincing": 7412,
      "delivery": 7413,
      "pigs": 7414,
      "mathematical": 7415,
      "superpower": 7416,
      "russian": 7417,
      "hawaiian": 7418,
      "manufacturing": 7419,
      "cuba": 7420,
      "##namon": 7421,
      "younger": 7422,
      "youngest": 7423,
      "chimp": 7424,
      "archimedes": 7425,
      "overlook": 7426,
      "buffet": 7427,
      "directly": 7428,
      "religion": 7429,
      "surround": 7430,
      "technique": 7431,
      "techniques": 7432,
      "evolutionary": 7433,
      "crock": 7434,
      "nipples": 7435,
      "pancakes": 7436,
      "titanium": 7437,
      "witness": 7438,
      "tools": 7439,
      "railroad": 7440,
      "melting": 7441,
      "vehicle": 7442,
      "unfamiliar": 7443,
      "relatives": 7444,
      "surgery": 7445,
      "survive": 7446,
      "depressed": 7447,
      "simpler": 7448,
      "freedom": 7449,
      "condescending": 7450,
      "puppies": 7451,
      "announcer": 7452,
      "bridesmaid": 7453,
      "federal": 7454,
      "virginity": 7455,
      "scratching": 7456,
      "cooking": 7457,
      "mahal": 7458,
      "sabb": 7459,
      "tiara": 7460,
      "target": 7461,
      "yummy": 7462,
      "mexican": 7463,
      "document": 7464,
      "dolphins": 7465,
      "liberty": 7466,
      "succumb": 7467,
      "algorith": 7468,
      "debate": 7469,
      "francisco": 7470,
      "bozeman": 7471,
      "sailor": 7472,
      "claws": 7473,
      "overthink": 7474,
      "application": 7475,
      "minimum": 7476,
      "warlords": 7477,
      "frequency": 7478,
      "definition": 7479,
      "electrodes": 7480,
      "condensates": 7481,
      "devastated": 7482,
      "microbiology": 7483,
      "alexander": 7484,
      "holid": 7485,
      "lava": 7486,
      "tedious": 7487,
      "##walker": 7488,
      "thirsty": 7489,
      "expensive": 7490,
      "major": 7491,
      "cloaking": 7492,
      "speccyguy": 7493,
      "quiznos": 7494,
      "sleeves": 7495,
      "attachment": 7496,
      "menopause": 7497,
      "refrigerator": 7498,
      "fiancee": 7499,
      "unfortunately": 7500,
      "bengal": 7501,
      "catholic": 7502,
      "eagle": 7503,
      "lisa": 7504,
      "masturb": 7505,
      "ostrich": 7506,
      "inquiry": 7507,
      "instrument": 7508,
      "mysterious": 7509,
      "forfeit": 7510,
      "suicide": 7511,
      "shatner": 7512,
      "plumbing": 7513,
      "scrotum": 7514,
      "disorder": 7515,
      "applied": 7516,
      "incorrect": 7517,
      "distribution": 7518,
      "cuisine": 7519,
      "purchase": 7520,
      "accompany": 7521,
      "galaxy": 7522,
      "determined": 7523,
      "breeze": 7524,
      "bishop": 7525,
      "cinnamon": 7526,
      "equally": 7527,
      "eidetic": 7528,
      "gesture": 7529,
      "hormone": 7530,
      "jennifer": 7531,
      "kosher": 7532,
      "lincoln": 7533,
      "luminous": 7534,
      "olymp": 7535,
      "overnight": 7536,
      "pvc": 7537,
      "pherom": 7538,
      "ricky": 7539,
      "santa": 7540,
      "tavern": 7541,
      "vapor": 7542,
      "leopold": 7543,
      "penicillin": 7544,
      "shields": 7545,
      "chitchat": 7546,
      "aluminum": 7547,
      "gupta": 7548,
      "goodbye": 7549,
      "rodeo": 7550,
      "unpleasant": 7551,
      "unnecessary": 7552,
      "unknown": 7553,
      "coeruleus": 7554,
      "manhattan": 7555,
      "manwithabox": 7556,
      "arbitr": 7557,
      "peculiar": 7558,
      "headphones": 7559,
      "geneva": 7560,
      "breakthrough": 7561,
      "submarine": 7562,
      "wildebeest": 7563,
      "aquarii": 7564,
      "mcgarry": 7565,
      "08": 7566,
      "3d": 7567,
      "32": 7568,
      "300": 7569,
      "48": 7570,
      "52": 7571,
      "64": 7572,
      "99": 7573,
      "aer": 7574,
      "aah": 7575,
      "ade": 7576,
      "aston": 7577,
      "bord": 7578,
      "bump": 7579,
      "bills": 7580,
      "bicy": 7581,
      "bumps": 7582,
      "burton": 7583,
      "cac": 7584,
      "cone": 7585,
      "cine": 7586,
      "cort": 7587,
      "cough": 7588,
      "colog": 7589,
      "cave": 7590,
      "cuck": 7591,
      "curt": 7592,
      "caut": 7593,
      "cott": 7594,
      "dy": 7595,
      "dan": 7596,
      "dot": 7597,
      "dom": 7598,
      "dood": 7599,
      "dick": 7600,
      "diss": 7601,
      "dies": 7602,
      "dign": 7603,
      "dens": 7604,
      "distant": 7605,
      "dared": 7606,
      "ew": 7607,
      "ease": 7608,
      "ether": 7609,
      "eup": 7610,
      "edd": 7611,
      "estro": 7612,
      "fidd": 7613,
      "fits": 7614,
      "gan": 7615,
      "gut": 7616,
      "gand": 7617,
      "gali": 7618,
      "gig": 7619,
      "gap": 7620,
      "gorn": 7621,
      "hood": 7622,
      "hous": 7623,
      "hank": 7624,
      "horr": 7625,
      "hunch": 7626,
      "heter": 7627,
      "hills": 7628,
      "jee": 7629,
      "jung": 7630,
      "jeng": 7631,
      "jamb": 7632,
      "kar": 7633,
      "ker": 7634,
      "kit": 7635,
      "kang": 7636,
      "kud": 7637,
      "kara": 7638,
      "ketch": 7639,
      "lid": 7640,
      "lun": 7641,
      "lum": 7642,
      "lys": 7643,
      "latt": 7644,
      "lub": 7645,
      "lamp": 7646,
      "lane": 7647,
      "mant": 7648,
      "mig": 7649,
      "mating": 7650,
      "mild": 7651,
      "mud": 7652,
      "munch": 7653,
      "macy": 7654,
      "ny": 7655,
      "nom": 7656,
      "nast": 7657,
      "nag": 7658,
      "nurt": 7659,
      "naught": 7660,
      "naming": 7661,
      "oat": 7662,
      "oun": 7663,
      "pit": 7664,
      "pic": 7665,
      "pett": 7666,
      "pil": 7667,
      "pum": 7668,
      "pul": 7669,
      "pel": 7670,
      "pause": 7671,
      "piss": 7672,
      "pag": 7673,
      "pix": 7674,
      "purse": 7675,
      "porn": 7676,
      "pages": 7677,
      "powers": 7678,
      "pushing": 7679,
      "rup": 7680,
      "ripped": 7681,
      "ruling": 7682,
      "sut": 7683,
      "sout": 7684,
      "sali": 7685,
      "sess": 7686,
      "sals": 7687,
      "saus": 7688,
      "sized": 7689,
      "szech": 7690,
      "tu": 7691,
      "tam": 7692,
      "tack": 7693,
      "tiss": 7694,
      "tons": 7695,
      "tso": 7696,
      "tense": 7697,
      "tamp": 7698,
      "tale": 7699,
      "vo": 7700,
      "vent": 7701,
      "vine": 7702,
      "wis": 7703,
      "woot": 7704,
      "wore": 7705,
      "ware": 7706,
      "wings": 7707,
      "wrist": 7708,
      "woke": 7709,
      "yi": 7710,
      "yield": 7711,
      "york": 7712,
      "##ued": 7713,
      "##uating": 7714,
      "##uary": 7715,
      "##uits": 7716,
      "##iven": 7717,
      "##iour": 7718,
      "##iently": 7719,
      "##lm": 7720,
      "##lett": 7721,
      "##long": 7722,
      "##lies": 7723,
      "##lated": 7724,
      "##loc": 7725,
      "##ta": 7726,
      "##tes": 7727,
      "##tone": 7728,
      "##tons": 7729,
      "##no": 7730,
      "##nia": 7731,
      "##nish": 7732,
      "##ga": 7733,
      "##gus": 7734,
      "##grav": 7735,
      "##hinct": 7736,
      "##ole": 7737,
      "##opp": 7738,
      "##oster": 7739,
      "##sen": 7740,
      "##sical": 7741,
      "##ead": 7742,
      "##eur": 7743,
      "##eath": 7744,
      "##rant": 7745,
      "##rome": 7746,
      "##run": 7747,
      "##riting": 7748,
      "##pre": 7749,
      "##pet": 7750,
      "##pass": 7751,
      "##may": 7752,
      "##mal": 7753,
      "##mend": 7754,
      "##mber": 7755,
      "##mates": 7756,
      "##da": 7757,
      "##den": 7758,
      "##xagon": 7759,
      "##cip": 7760,
      "##ciss": 7761,
      "##cock": 7762,
      "##comm": 7763,
      "##wing": 7764,
      "##writing": 7765,
      "##vo": 7766,
      "##vah": 7767,
      "##fun": 7768,
      "##fect": 7769,
      "##fty": 7770,
      "##onge": 7771,
      "##onment": 7772,
      "##onica": 7773,
      "##arge": 7774,
      "##arian": 7775,
      "##aroni": 7776,
      "##hent": 7777,
      "toes": 7778,
      "##ards": 7779,
      "lend": 7780,
      "leap": 7781,
      "shed": 7782,
      "##eny": 7783,
      "##enon": 7784,
      "##enger": 7785,
      "##enberg": 7786,
      "##enhag": 7787,
      "##owder": 7788,
      "##erate": 7789,
      "##erable": 7790,
      "##inch": 7791,
      "##instructor": 7792,
      "howdy": 7793,
      "youth": 7794,
      "rais": 7795,
      "rash": 7796,
      "raised": 7797,
      "rang": 7798,
      "raising": 7799,
      "raiders": 7800,
      "##atoo": 7801,
      "##atter": 7802,
      "##atical": 7803,
      "##athetic": 7804,
      "##atdoor": 7805,
      "thri": 7806,
      "##anch": 7807,
      "##stri": 7808,
      "##stery": 7809,
      "##stock": 7810,
      "##stones": 7811,
      "##stimate": 7812,
      "##etal": 7813,
      "##orating": 7814,
      "##orph": 7815,
      "##iti": 7816,
      "##itis": 7817,
      "##itates": 7818,
      "##oted": 7819,
      "ana": 7820,
      "anist": 7821,
      "anger": 7822,
      "anec": 7823,
      "anxi": 7824,
      "##leo": 7825,
      "##leader": 7826,
      "##omy": 7827,
      "##omfort": 7828,
      "whipped": 7829,
      "##adow": 7830,
      "##ading": 7831,
      "ink": 7832,
      "inac": 7833,
      "inev": 7834,
      "inex": 7835,
      "##esy": 7836,
      "##esis": 7837,
      "##isenberg": 7838,
      "rehe": 7839,
      "rect": 7840,
      "reverse": 7841,
      "##icine": 7842,
      "##icity": 7843,
      "wears": 7844,
      "##aser": 7845,
      "##asers": 7846,
      "##asies": 7847,
      "##ashes": 7848,
      "bee": 7849,
      "beet": 7850,
      "beep": 7851,
      "belly": 7852,
      "behold": 7853,
      "##ala": 7854,
      "stone": 7855,
      "stain": 7856,
      "stale": 7857,
      "stero": 7858,
      "stitches": 7859,
      "##riers": 7860,
      "isra": 7861,
      "isol": 7862,
      "hexagon": 7863,
      "heisenberg": 7864,
      "##keep": 7865,
      "##ernal": 7866,
      "##erneath": 7867,
      "whatcha": 7868,
      "dozen": 7869,
      "##acious": 7870,
      "##accept": 7871,
      "##acology": 7872,
      "mystery": 7873,
      "ford": 7874,
      "formed": 7875,
      "forks": 7876,
      "forces": 7877,
      "notion": 7878,
      "nove": 7879,
      "##imp": 7880,
      "##imately": 7881,
      "##allows": 7882,
      "##irmed": 7883,
      "donnie": 7884,
      "##ustri": 7885,
      "hers": 7886,
      "soaps": 7887,
      "##rams": 7888,
      "knuck": 7889,
      "##robe": 7890,
      "cancer": 7891,
      "canada": 7892,
      "##amine": 7893,
      "##hern": 7894,
      "##oli": 7895,
      "##ola": 7896,
      "##olis": 7897,
      "##olation": 7898,
      "##cho": 7899,
      "alliance": 7900,
      "suits": 7901,
      "shack": 7902,
      "shiv": 7903,
      "shiny": 7904,
      "abort": 7905,
      "abrupt": 7906,
      "##cting": 7907,
      "studi": 7908,
      "stubb": 7909,
      "stumble": 7910,
      "upd": 7911,
      "update": 7912,
      "##ilon": 7913,
      "##ilant": 7914,
      "prior": 7915,
      "prime": 7916,
      "moss": 7917,
      "moist": 7918,
      "exe": 7919,
      "exit": 7920,
      "wanting": 7921,
      "##aun": 7922,
      "##aud": 7923,
      "chill": 7924,
      "chase": 7925,
      "chip": 7926,
      "chief": 7927,
      "##atest": 7928,
      "##ateful": 7929,
      "spa": 7930,
      "spat": 7931,
      "span": 7932,
      "spotted": 7933,
      "sphinct": 7934,
      "##geons": 7935,
      "alike": 7936,
      "alright": 7937,
      "alibi": 7938,
      "##unte": 7939,
      "##umbs": 7940,
      "##opes": 7941,
      "##opathy": 7942,
      "dee": 7943,
      "dew": 7944,
      "destruct": 7945,
      "##inks": 7946,
      "worries": 7947,
      "##inestones": 7948,
      "pasta": 7949,
      "fract": 7950,
      "construct": 7951,
      "##ousy": 7952,
      "##alized": 7953,
      "##alistic": 7954,
      "##alization": 7955,
      "seek": 7956,
      "placed": 7957,
      "##igan": 7958,
      "##istance": 7959,
      "##istics": 7960,
      "##istration": 7961,
      "gotcha": 7962,
      "##ulous": 7963,
      "nowitz": 7964,
      "leth": 7965,
      "proving": 7966,
      "proved": 7967,
      "prolong": 7968,
      "##ables": 7969,
      "orang": 7970,
      "orgas": 7971,
      "rod": 7972,
      "ross": 7973,
      "rogue": 7974,
      "roses": 7975,
      "loins": 7976,
      "loaf": 7977,
      "loyal": 7978,
      "##elf": 7979,
      "enh": 7980,
      "enable": 7981,
      "envir": 7982,
      "unw": 7983,
      "unfriend": 7984,
      "unatt": 7985,
      "united": 7986,
      "unaccept": 7987,
      "map": 7988,
      "usb": 7989,
      "boat": 7990,
      "boom": 7991,
      "bollywood": 7992,
      "scram": 7993,
      "schemat": 7994,
      "intri": 7995,
      "fee": 7996,
      "feast": 7997,
      "prey": 7998,
      "preced": 7999,
      "preev": 8000,
      "##ongy": 8001,
      "##erestimate": 8002,
      "ages": 8003,
      "aggress": 8004,
      "poster": 8005,
      "##venant": 8006,
      "cocon": 8007,
      "coded": 8008,
      "cogent": 8009,
      "covenant": 8010,
      "##actic": 8011,
      "##ortion": 8012,
      "greatest": 8013,
      "needle": 8014,
      "##ipation": 8015,
      "##ipating": 8016,
      "##ipated": 8017,
      "smush": 8018,
      "peel": 8019,
      "waking": 8020,
      "waist": 8021,
      "##aceut": 8022,
      "##issipp": 8023,
      "cloud": 8024,
      "client": 8025,
      "overs": 8026,
      "overlord": 8027,
      "twister": 8028,
      "##osing": 8029,
      "##osit": 8030,
      "##osyn": 8031,
      "##ogen": 8032,
      "##ogue": 8033,
      "##plant": 8034,
      "##thany": 8035,
      "##ifting": 8036,
      "shoulders": 8037,
      "newc": 8038,
      "mores": 8039,
      "phob": 8040,
      "blast": 8041,
      "blown": 8042,
      "blinking": 8043,
      "undead": 8044,
      "underneath": 8045,
      "underestimate": 8046,
      "bron": 8047,
      "brand": 8048,
      "brus": 8049,
      "bracel": 8050,
      "partner": 8051,
      "beverages": 8052,
      "dix": 8053,
      "dire": 8054,
      "dial": 8055,
      "dials": 8056,
      "diabet": 8057,
      "womanatdoor": 8058,
      "grinch": 8059,
      "grateful": 8060,
      "cheers": 8061,
      "underwater": 8062,
      "underhill": 8063,
      "flor": 8064,
      "flank": 8065,
      "flavor": 8066,
      "flowers": 8067,
      "flirting": 8068,
      "disk": 8069,
      "disin": 8070,
      "##shot": 8071,
      "##shop": 8072,
      "putt": 8073,
      "pleasing": 8074,
      "mississipp": 8075,
      "imper": 8076,
      "image": 8077,
      "interfer": 8078,
      "interference": 8079,
      "assoc": 8080,
      "assault": 8081,
      "assured": 8082,
      "kinds": 8083,
      "acid": 8084,
      "##cules": 8085,
      "##gets": 8086,
      "##ester": 8087,
      "barre": 8088,
      "barret": 8089,
      "barrier": 8090,
      "ado": 8091,
      "adop": 8092,
      "adhes": 8093,
      "adapt": 8094,
      "joel": 8095,
      "resol": 8096,
      "##aved": 8097,
      "##avier": 8098,
      "##quake": 8099,
      "permit": 8100,
      "perceive": 8101,
      "perlm": 8102,
      "perpet": 8103,
      "qualif": 8104,
      "afric": 8105,
      "roommates": 8106,
      "##mma": 8107,
      "##mmage": 8108,
      "##manship": 8109,
      "believed": 8110,
      "believes": 8111,
      "##dily": 8112,
      "##ordinate": 8113,
      "mighty": 8114,
      "homeless": 8115,
      "homeland": 8116,
      "slam": 8117,
      "slave": 8118,
      "slipp": 8119,
      "glue": 8120,
      "margar": 8121,
      "contempt": 8122,
      "handwriting": 8123,
      "mont": 8124,
      "questionna": 8125,
      "secondly": 8126,
      "secondary": 8127,
      "breed": 8128,
      "sciences": 8129,
      "hotter": 8130,
      "hotdog": 8131,
      "parl": 8132,
      "param": 8133,
      "implying": 8134,
      "suppress": 8135,
      "##ocr": 8136,
      "##ochem": 8137,
      "doors": 8138,
      "physically": 8139,
      "hugh": 8140,
      "##ucks": 8141,
      "compuls": 8142,
      "morse": 8143,
      "morlocks": 8144,
      "attor": 8145,
      "attending": 8146,
      "##elling": 8147,
      "##ellent": 8148,
      "designing": 8149,
      "badass": 8150,
      "drift": 8151,
      "recon": 8152,
      "recre": 8153,
      "recip": 8154,
      "reconsider": 8155,
      "lotion": 8156,
      "heading": 8157,
      "minor": 8158,
      "owns": 8159,
      "stops": 8160,
      "fines": 8161,
      "finishing": 8162,
      "finnish": 8163,
      "invas": 8164,
      "inviting": 8165,
      "invoke": 8166,
      "strateg": 8167,
      "swan": 8168,
      "swamp": 8169,
      "jiminy": 8170,
      "pickled": 8171,
      "##cod": 8172,
      "starch": 8173,
      "starving": 8174,
      "facto": 8175,
      "factor": 8176,
      "##phy": 8177,
      "crew": 8178,
      "pawn": 8179,
      "awake": 8180,
      "syn": 8181,
      "synch": 8182,
      "bush": 8183,
      "generic": 8184,
      "signature": 8185,
      "##enses": 8186,
      "restate": 8187,
      "restroom": 8188,
      "corpor": 8189,
      "tremend": 8190,
      "useless": 8191,
      "ideal": 8192,
      "##ggles": 8193,
      "breaker": 8194,
      "superc": 8195,
      "##asonable": 8196,
      "stays": 8197,
      "movements": 8198,
      "ende": 8199,
      "endless": 8200,
      "##azz": 8201,
      "reality": 8202,
      "subt": 8203,
      "subtle": 8204,
      "##iano": 8205,
      "decaf": 8206,
      "wondered": 8207,
      "bride": 8208,
      "matters": 8209,
      "menus": 8210,
      "snort": 8211,
      "snide": 8212,
      "sniff": 8213,
      "snacks": 8214,
      "##strong": 8215,
      "indo": 8216,
      "indep": 8217,
      "indicated": 8218,
      "consist": 8219,
      "conscious": 8220,
      "entom": 8221,
      "entropy": 8222,
      "mete": 8223,
      "cutest": 8224,
      "geom": 8225,
      "geiger": 8226,
      "explor": 8227,
      "explore": 8228,
      "kills": 8229,
      "##cience": 8230,
      "reasoning": 8231,
      "sets": 8232,
      "policy": 8233,
      "screams": 8234,
      "rocky": 8235,
      "entered": 8236,
      "collaps": 8237,
      "bowels": 8238,
      "##ivative": 8239,
      "reduce": 8240,
      "charlie": 8241,
      "classinstructor": 8242,
      "tops": 8243,
      "paperwork": 8244,
      "cardboard": 8245,
      "##moil": 8246,
      "extr": 8247,
      "extension": 8248,
      "extracted": 8249,
      "boxes": 8250,
      "centered": 8251,
      "insp": 8252,
      "insurance": 8253,
      "##etera": 8254,
      "repellent": 8255,
      "confusion": 8256,
      "confirmed": 8257,
      "ringtone": 8258,
      "batter": 8259,
      "uncertain": 8260,
      "wedge": 8261,
      "steady": 8262,
      "robbed": 8263,
      "consideration": 8264,
      "password": 8265,
      "passenger": 8266,
      "trap": 8267,
      "experimentation": 8268,
      "goldfarb": 8269,
      "graphe": 8270,
      "stanley": 8271,
      "brainiac": 8272,
      "distracted": 8273,
      "upsets": 8274,
      "promiscu": 8275,
      "frig": 8276,
      "paying": 8277,
      "beauty": 8278,
      "bikin": 8279,
      "biochem": 8280,
      "madness": 8281,
      "forgetting": 8282,
      "forgotten": 8283,
      "floppy": 8284,
      "##ronize": 8285,
      "##ronium": 8286,
      "footage": 8287,
      "##raction": 8288,
      "##duction": 8289,
      "terrifying": 8290,
      "fights": 8291,
      "halle": 8292,
      "conversational": 8293,
      "jobs": 8294,
      "waitresses": 8295,
      "speaks": 8296,
      "column": 8297,
      "medication": 8298,
      "medicine": 8299,
      "patang": 8300,
      "patty": 8301,
      "patience": 8302,
      "examine": 8303,
      "systems": 8304,
      "limb": 8305,
      "opposed": 8306,
      "##headed": 8307,
      "refle": 8308,
      "cleaned": 8309,
      "effic": 8310,
      "fires": 8311,
      "firefly": 8312,
      "spots": 8313,
      "earthquake": 8314,
      "powered": 8315,
      "powerpoint": 8316,
      "sadness": 8317,
      "sorta": 8318,
      "urination": 8319,
      "uranium": 8320,
      "urban": 8321,
      "explaining": 8322,
      "messy": 8323,
      "messed": 8324,
      "stream": 8325,
      "dragged": 8326,
      "##meal": 8327,
      "acceptable": 8328,
      "acceptance": 8329,
      "judging": 8330,
      "approve": 8331,
      "approval": 8332,
      "controvers": 8333,
      "generations": 8334,
      "eighth": 8335,
      "leads": 8336,
      "##levard": 8337,
      "protot": 8338,
      "correctly": 8339,
      "rolls": 8340,
      "rolling": 8341,
      "massive": 8342,
      "formal": 8343,
      "preparing": 8344,
      "preposter": 8345,
      "capture": 8346,
      "cousins": 8347,
      "threesome": 8348,
      "sticks": 8349,
      "cryogenic": 8350,
      "diego": 8351,
      "geek": 8352,
      "geez": 8353,
      "##spe": 8354,
      "bowls": 8355,
      "characterize": 8356,
      "cape": 8357,
      "haroon": 8358,
      "toddler": 8359,
      "excl": 8360,
      "keynote": 8361,
      "fixing": 8362,
      "panel": 8363,
      "legol": 8364,
      "legend": 8365,
      "rational": 8366,
      "flashlight": 8367,
      "copulate": 8368,
      "copenhag": 8369,
      "facing": 8370,
      "faced": 8371,
      "squad": 8372,
      "emotions": 8373,
      "milky": 8374,
      "cylon": 8375,
      "cycl": 8376,
      "##undant": 8377,
      "pressing": 8378,
      "psychics": 8379,
      "psychology": 8380,
      "psychological": 8381,
      "dancer": 8382,
      "honored": 8383,
      "salmon": 8384,
      "salami": 8385,
      "chairs": 8386,
      "buckles": 8387,
      "returns": 8388,
      "stopping": 8389,
      "romans": 8390,
      "turmoil": 8391,
      "article": 8392,
      "practicing": 8393,
      "involve": 8394,
      "involunt": 8395,
      "curiouser": 8396,
      "publish": 8397,
      "wallet": 8398,
      "##stitutes": 8399,
      "##stitution": 8400,
      "armstrong": 8401,
      "idiosyn": 8402,
      "july": 8403,
      "miserable": 8404,
      "locker": 8405,
      "creeps": 8406,
      "effective": 8407,
      "effectively": 8408,
      "boobies": 8409,
      "brakes": 8410,
      "droll": 8411,
      "fiery": 8412,
      "dollar": 8413,
      "temple": 8414,
      "planetary": 8415,
      "controls": 8416,
      "purple": 8417,
      "silk": 8418,
      "replica": 8419,
      "sooner": 8420,
      "bridget": 8421,
      "includes": 8422,
      "error": 8423,
      "ernie": 8424,
      "franklin": 8425,
      "18th": 8426,
      "flatter": 8427,
      "discre": 8428,
      "discomfort": 8429,
      "strongly": 8430,
      "historical": 8431,
      "landed": 8432,
      "landlord": 8433,
      "merc": 8434,
      "shops": 8435,
      "posted": 8436,
      "arrhythm": 8437,
      "neighborhood": 8438,
      "hooking": 8439,
      "##hyd": 8440,
      "tort": 8441,
      "spinning": 8442,
      "safely": 8443,
      "magnet": 8444,
      "travels": 8445,
      "2008": 8446,
      "beret": 8447,
      "berthany": 8448,
      "cowboy": 8449,
      "feline": 8450,
      "mixer": 8451,
      "mixing": 8452,
      "combustion": 8453,
      "improper": 8454,
      "skinny": 8455,
      "snowfl": 8456,
      "derision": 8457,
      "dermat": 8458,
      "derivative": 8459,
      "foolish": 8460,
      "grid": 8461,
      "ignore": 8462,
      "candid": 8463,
      "freakin": 8464,
      "occasional": 8465,
      "auto": 8466,
      "autograph": 8467,
      "autographed": 8468,
      "authent": 8469,
      "rubber": 8470,
      "rubbing": 8471,
      "spirits": 8472,
      "employment": 8473,
      "regardless": 8474,
      "satisfied": 8475,
      "behaviour": 8476,
      "burned": 8477,
      "mutism": 8478,
      "operate": 8479,
      "yoga": 8480,
      "require": 8481,
      "processing": 8482,
      "violent": 8483,
      "violation": 8484,
      "violated": 8485,
      "publicly": 8486,
      "quietly": 8487,
      "denied": 8488,
      "essay": 8489,
      "essence": 8490,
      "purposes": 8491,
      "achieved": 8492,
      "daughters": 8493,
      "miracle": 8494,
      "instance": 8495,
      "nearly": 8496,
      "developed": 8497,
      "predicated": 8498,
      "predicted": 8499,
      "crispo": 8500,
      "switching": 8501,
      "identified": 8502,
      "whiskey": 8503,
      "chuckle": 8504,
      "cockatoo": 8505,
      "briska": 8506,
      "implied": 8507,
      "marriages": 8508,
      "basement": 8509,
      "tasks": 8510,
      "wander": 8511,
      "forbidden": 8512,
      "allergies": 8513,
      "commentary": 8514,
      "clarinet": 8515,
      "bluff": 8516,
      "terminator": 8517,
      "lightsab": 8518,
      "constantly": 8519,
      "bounced": 8520,
      "cartoon": 8521,
      "midwest": 8522,
      "tickle": 8523,
      "insec": 8524,
      "challeng": 8525,
      "feeding": 8526,
      "blossom": 8527,
      "cheerleader": 8528,
      "remains": 8529,
      "neurobiologist": 8530,
      "billion": 8531,
      "castle": 8532,
      "martial": 8533,
      "veronica": 8534,
      "volcan": 8535,
      "volunte": 8536,
      "mobile": 8537,
      "mobsters": 8538,
      "aliens": 8539,
      "monopoly": 8540,
      "obligation": 8541,
      "basketball": 8542,
      "complaining": 8543,
      "millionaire": 8544,
      "circumc": 8545,
      "authority": 8546,
      "cherry": 8547,
      "cherries": 8548,
      "dungeon": 8549,
      "dungeons": 8550,
      "defeated": 8551,
      "scenes": 8552,
      "smoking": 8553,
      "smokes": 8554,
      "hippie": 8555,
      "sneaking": 8556,
      "entertainment": 8557,
      "surprisingly": 8558,
      "crowded": 8559,
      "jeopard": 8560,
      "luke": 8561,
      "##block": 8562,
      "amongst": 8563,
      "lifel": 8564,
      "lifetime": 8565,
      "alternative": 8566,
      "cosmological": 8567,
      "overreaction": 8568,
      "insulting": 8569,
      "electrical": 8570,
      "duties": 8571,
      "ducks": 8572,
      "groc": 8573,
      "jelly": 8574,
      "linked": 8575,
      "nailed": 8576,
      "route": 8577,
      "routine": 8578,
      "tasty": 8579,
      "tasting": 8580,
      "hemis": 8581,
      "interactions": 8582,
      "mathematics": 8583,
      "hundreds": 8584,
      "companionship": 8585,
      "skywalker": 8586,
      "conclusive": 8587,
      "conclusively": 8588,
      "neutral": 8589,
      "dynamic": 8590,
      "fashioned": 8591,
      "manufacturer": 8592,
      "bleeding": 8593,
      "hunger": 8594,
      "mimesis": 8595,
      "narrow": 8596,
      "narciss": 8597,
      "rarely": 8598,
      "thusly": 8599,
      "innov": 8600,
      "weakness": 8601,
      "mechanical": 8602,
      "mechanics": 8603,
      "supern": 8604,
      "demand": 8605,
      "chemist": 8606,
      "accelerator": 8607,
      "religious": 8608,
      "surrender": 8609,
      "centrifugal": 8610,
      "repeat": 8611,
      "repeated": 8612,
      "frightening": 8613,
      "aye": 8614,
      "borrowed": 8615,
      "curve": 8616,
      "crocod": 8617,
      "cuddles": 8618,
      "sacrif": 8619,
      "towels": 8620,
      "inhaler": 8621,
      "inferior": 8622,
      "rebound": 8623,
      "stacked": 8624,
      "amazon": 8625,
      "unreasonable": 8626,
      "preserving": 8627,
      "flawed": 8628,
      "eliminate": 8629,
      "surgical": 8630,
      "confrontation": 8631,
      "puffy": 8632,
      "cylinder": 8633,
      "whiteboards": 8634,
      "bridesmaids": 8635,
      "baffling": 8636,
      "muffins": 8637,
      "federation": 8638,
      "aspects": 8639,
      "boulevard": 8640,
      "jogging": 8641,
      "malar": 8642,
      "nauseated": 8643,
      "ultimately": 8644,
      "vastly": 8645,
      "lenny": 8646,
      "whistle": 8647,
      "revealed": 8648,
      "sequence": 8649,
      "festival": 8650,
      "manipulate": 8651,
      "pharmacology": 8652,
      "pharmaceut": 8653,
      "appetiz": 8654,
      "component": 8655,
      "components": 8656,
      "anticipate": 8657,
      "encoura": 8658,
      "encourage": 8659,
      "encounter": 8660,
      "encounters": 8661,
      "demonstrate": 8662,
      "diamonds": 8663,
      "occupied": 8664,
      "duration": 8665,
      "pirate": 8666,
      "rhinestones": 8667,
      "tanvir": 8668,
      "village": 8669,
      "vocal": 8670,
      "wrest": 8671,
      "wobot": 8672,
      "##ihil": 8673,
      "whimsical": 8674,
      "stroke": 8675,
      "heights": 8676,
      "habits": 8677,
      "deceit": 8678,
      "scrimmage": 8679,
      "featuring": 8680,
      "precisely": 8681,
      "kidnap": 8682,
      "swallowed": 8683,
      "hopelessly": 8684,
      "passionate": 8685,
      "concentration": 8686,
      "harmless": 8687,
      "marshmallows": 8688,
      "hemorrhoid": 8689,
      "ingredients": 8690,
      "eternal": 8691,
      "foul": 8692,
      "mitzvah": 8693,
      "tushy": 8694,
      "vespa": 8695,
      "wireless": 8696,
      "tolerate": 8697,
      "levar": 8698,
      "lemonade": 8699,
      "therapy": 8700,
      "instructions": 8701,
      "selective": 8702,
      "apocalypt": 8703,
      "contraire": 8704,
      "comparison": 8705,
      "sneeze": 8706,
      "reproduce": 8707,
      "refreshing": 8708,
      "crystals": 8709,
      "psychiatrist": 8710,
      "romulan": 8711,
      "oxygen": 8712,
      "ambiguous": 8713,
      "temporary": 8714,
      "dwarf": 8715,
      "mushroom": 8716,
      "ps3": 8717,
      "vampires": 8718,
      "rampant": 8719,
      "inherent": 8720,
      "revenge": 8721,
      "stipulate": 8722,
      "spoken": 8723,
      "condemn": 8724,
      "feminine": 8725,
      "william": 8726,
      "cognitive": 8727,
      "coccyx": 8728,
      "##nagian": 8729,
      "specialist": 8730,
      "cranberry": 8731,
      "slugger": 8732,
      "parallel": 8733,
      "paraphrase": 8734,
      "hummingbird": 8735,
      "catwoman": 8736,
      "restraining": 8737,
      "brobdingnagian": 8738,
      "distinguished": 8739,
      "positronium": 8740,
      "juvenile": 8741,
      "cockamamy": 8742,
      "shiksa": 8743,
      "acquaintance": 8744,
      "crockett": 8745,
      "mahalo": 8746,
      "holidays": 8747,
      "pheromones": 8748,
      "cinema": 8749,
      "cologne": 8750,
      "cuckoo": 8751,
      "cotton": 8752,
      "euphem": 8753,
      "eddie": 8754,
      "estrogen": 8755,
      "gandhi": 8756,
      "galileo": 8757,
      "horror": 8758,
      "jenga": 8759,
      "kermit": 8760,
      "kudos": 8761,
      "karaoke": 8762,
      "ketchup": 8763,
      "nasty": 8764,
      "oatmeal": 8765,
      "petty": 8766,
      "session": 8767,
      "salsa": 8768,
      "szechuan": 8769,
      "tissue": 8770,
      "tampons": 8771,
      "yikes": 8772,
      "##function": 8773,
      "aniston": 8774,
      "anecd": 8775,
      "anxiety": 8776,
      "inevitable": 8777,
      "israel": 8778,
      "shiva": 8779,
      "stubborn": 8780,
      "nowitzki": 8781,
      "prolonged": 8782,
      "orgasms": 8783,
      "environment": 8784,
      "unacceptable": 8785,
      "scrambled": 8786,
      "preevning": 8787,
      "diabetes": 8788,
      "interfering": 8789,
      "associated": 8790,
      "adhesive": 8791,
      "perlmutter": 8792,
      "tremendous": 8793,
      "graphene": 8794,
      "bikini": 8795,
      "preposterous": 8796,
      "copenhagen": 8797,
      "idiosyncr": 8798,
      "arrhythmia": 8799,
      "snowflake": 8800,
      "volcano": 8801,
      "apocalyptic": 8802,
      "05": 8803,
      "34": 8804,
      "38": 8805,
      "3po": 8806,
      "400": 8807,
      "61": 8808,
      "75": 8809,
      "72": 8810,
      "98": 8811,
      "911": 8812,
      "az": 8813,
      "aids": 8814,
      "bor": 8815,
      "bent": 8816,
      "bout": 8817,
      "bil": 8818,
      "bend": 8819,
      "bum": 8820,
      "booth": 8821,
      "bff": 8822,
      "bour": 8823,
      "bass": 8824,
      "bail": 8825,
      "bert": 8826,
      "bible": 8827,
      "braw": 8828,
      "burr": 8829,
      "bending": 8830,
      "cw": 8831,
      "cer": 8832,
      "cad": 8833,
      "cali": 8834,
      "cig": 8835,
      "catt": 8836,
      "cents": 8837,
      "caps": 8838,
      "curs": 8839,
      "cetera": 8840,
      "dc": 8841,
      "dough": 8842,
      "doog": 8843,
      "dudes": 8844,
      "doodle": 8845,
      "dts": 8846,
      "dagger": 8847,
      "e9": 8848,
      "eine": 8849,
      "eure": 8850,
      "erect": 8851,
      "econ": 8852,
      "elder": 8853,
      "espe": 8854,
      "fry": 8855,
      "fame": 8856,
      "fence": 8857,
      "file": 8858,
      "fict": 8859,
      "fiddle": 8860,
      "furry": 8861,
      "faint": 8862,
      "fishing": 8863,
      "fetch": 8864,
      "gin": 8865,
      "gust": 8866,
      "gist": 8867,
      "gear": 8868,
      "gps": 8869,
      "giggling": 8870,
      "hen": 8871,
      "hay": 8872,
      "ii": 8873,
      "ich": 8874,
      "iod": 8875,
      "icon": 8876,
      "jr": 8877,
      "jay": 8878,
      "jol": 8879,
      "jaw": 8880,
      "kl": 8881,
      "kre": 8882,
      "kol": 8883,
      "kil": 8884,
      "kooth": 8885,
      "koothrapp": 8886,
      "kama": 8887,
      "khan": 8888,
      "lick": 8889,
      "luc": 8890,
      "lousy": 8891,
      "mg": 8892,
      "mw": 8893,
      "ming": 8894,
      "mes": 8895,
      "mend": 8896,
      "mitt": 8897,
      "mile": 8898,
      "mish": 8899,
      "mug": 8900,
      "mamm": 8901,
      "menses": 8902,
      "nq": 8903,
      "nan": 8904,
      "nam": 8905,
      "nour": 8906,
      "nach": 8907,
      "null": 8908,
      "nib": 8909,
      "norr": 8910,
      "nets": 8911,
      "noog": 8912,
      "navy": 8913,
      "og": 8914,
      "ov": 8915,
      "oop": 8916,
      "okey": 8917,
      "ought": 8918,
      "py": 8919,
      "pd": 8920,
      "pac": 8921,
      "pse": 8922,
      "pra": 8923,
      "pate": 8924,
      "pink": 8925,
      "pand": 8926,
      "pep": 8927,
      "pity": 8928,
      "pace": 8929,
      "pile": 8930,
      "pup": 8931,
      "pets": 8932,
      "pits": 8933,
      "phen": 8934,
      "pane": 8935,
      "pony": 8936,
      "pipe": 8937,
      "piano": 8938,
      "ry": 8939,
      "r2": 8940,
      "rome": 8941,
      "rook": 8942,
      "rig": 8943,
      "rhes": 8944,
      "ruth": 8945,
      "rival": 8946,
      "sow": 8947,
      "ske": 8948,
      "sings": 8949,
      "sizes": 8950,
      "skeleton": 8951,
      "tant": 8952,
      "tact": 8953,
      "ties": 8954,
      "tire": 8955,
      "tennis": 8956,
      "tens": 8957,
      "tator": 8958,
      "taw": 8959,
      "tending": 8960,
      "tux": 8961,
      "vart": 8962,
      "vall": 8963,
      "vood": 8964,
      "vig": 8965,
      "vist": 8966,
      "via": 8967,
      "vert": 8968,
      "vib": 8969,
      "vix": 8970,
      "vod": 8971,
      "voted": 8972,
      "ward": 8973,
      "wab": 8974,
      "wink": 8975,
      "witt": 8976,
      "wool": 8977,
      "wetting": 8978,
      "wifi": 8979,
      "xavier": 8980,
      "yard": 8981,
      "yoo": 8982,
      "yipp": 8983,
      "yarm": 8984,
      "zoot": 8985,
      "zach": 8986,
      "zod": 8987,
      "zork": 8988,
      "##uy": 8989,
      "##uk": 8990,
      "##uz": 8991,
      "##uing": 8992,
      "##upp": 8993,
      "##uss": 8994,
      "##uity": 8995,
      "##iper": 8996,
      "##iating": 8997,
      "##ived": 8998,
      "##lp": 8999,
      "##let": 9000,
      "##lid": 9001,
      "##lim": 9002,
      "##lah": 9003,
      "##letic": 9004,
      "##tical": 9005,
      "##tails": 9006,
      "##nid": 9007,
      "##niz": 9008,
      "##nals": 9009,
      "##nold": 9010,
      "##gon": 9011,
      "##gic": 9012,
      "##god": 9013,
      "##hs": 9014,
      "##ham": 9015,
      "##hand": 9016,
      "##hus": 9017,
      "##hile": 9018,
      "##hany": 9019,
      "##hamm": 9020,
      "##hletic": 9021,
      "##oom": 9022,
      "##oking": 9023,
      "##oys": 9024,
      "##off": 9025,
      "##oqu": 9026,
      "##sor": 9027,
      "##sol": 9028,
      "##sper": 9029,
      "##spens": 9030,
      "##ral": 9031,
      "##rous": 9032,
      "##rict": 9033,
      "##rared": 9034,
      "##rased": 9035,
      "##yper": 9036,
      "##yote": 9037,
      "##ybara": 9038,
      "##pes": 9039,
      "##put": 9040,
      "##pher": 9041,
      "##pie": 9042,
      "##pee": 9043,
      "##position": 9044,
      "##mus": 9045,
      "##mlin": 9046,
      "##don": 9047,
      "##dged": 9048,
      "##driver": 9049,
      "##aing": 9050,
      "##aper": 9051,
      "##ales": 9052,
      "##aft": 9053,
      "##apping": 9054,
      "##kip": 9055,
      "##xious": 9056,
      "##xible": 9057,
      "##xwell": 9058,
      "##cin": 9059,
      "##ckey": 9060,
      "##cises": 9061,
      "##wi": 9062,
      "##wid": 9063,
      "##ba": 9064,
      "##bc": 9065,
      "##bro": 9066,
      "##bile": 9067,
      "##bia": 9068,
      "##bial": 9069,
      "##burn": 9070,
      "##bler": 9071,
      "##for": 9072,
      "##fle": 9073,
      "##fire": 9074,
      "##fare": 9075,
      "##fudd": 9076,
      "##za": 9077,
      "##zzy": 9078,
      "##zilla": 9079,
      "##ja": 9080,
      "##52": 9081,
      "##onk": 9082,
      "##ongest": 9083,
      "##arin": 9084,
      "##aroo": 9085,
      "##arse": 9086,
      "##aroth": 9087,
      "##armed": 9088,
      "##arching": 9089,
      "##armony": 9090,
      "##hered": 9091,
      "toss": 9092,
      "toaster": 9093,
      "##arded": 9094,
      "##lda": 9095,
      "##ldering": 9096,
      "lean": 9097,
      "leia": 9098,
      "leib": 9099,
      "lepre": 9100,
      "sher": 9101,
      "shepher": 9102,
      "sheldons": 9103,
      "sheldonop": 9104,
      "##enant": 9105,
      "##enna": 9106,
      "##oured": 9107,
      "##oufl": 9108,
      "##erd": 9109,
      "##eral": 9110,
      "##erie": 9111,
      "##eril": 9112,
      "##inar": 9113,
      "##inity": 9114,
      "##inery": 9115,
      "##inates": 9116,
      "yousa": 9117,
      "rai": 9118,
      "rays": 9119,
      "rapid": 9120,
      "ralph": 9121,
      "ramay": 9122,
      "pencil": 9123,
      "##atch": 9124,
      "##atable": 9125,
      "##atically": 9126,
      "##atisf": 9127,
      "##atchers": 9128,
      "theft": 9129,
      "thumbs": 9130,
      "##ani": 9131,
      "##anim": 9132,
      "##llor": 9133,
      "##llas": 9134,
      "##stice": 9135,
      "##step": 9136,
      "##etics": 9137,
      "##etric": 9138,
      "##orant": 9139,
      "##orie": 9140,
      "##orous": 9141,
      "##orage": 9142,
      "##orman": 9143,
      "##organ": 9144,
      "##itic": 9145,
      "##itas": 9146,
      "##itect": 9147,
      "##itory": 9148,
      "##itational": 9149,
      "##otty": 9150,
      "anne": 9151,
      "angu": 9152,
      "anarch": 9153,
      "##lest": 9154,
      "##edly": 9155,
      "##edia": 9156,
      "##educ": 9157,
      "##omult": 9158,
      "##omnia": 9159,
      "whaff": 9160,
      "##adian": 9161,
      "##adium": 9162,
      "##adoodle": 9163,
      "ing": 9164,
      "inade": 9165,
      "inert": 9166,
      "invest": 9167,
      "##isons": 9168,
      "##isposition": 9169,
      "reest": 9170,
      "revers": 9171,
      "relying": 9172,
      "reaches": 9173,
      "rebell": 9174,
      "revol": 9175,
      "##veled": 9176,
      "##icop": 9177,
      "##icorn": 9178,
      "##ickel": 9179,
      "weake": 9180,
      "weaving": 9181,
      "##asco": 9182,
      "##utan": 9183,
      "##uted": 9184,
      "##utenant": 9185,
      "bea": 9186,
      "beating": 9187,
      "befriend": 9188,
      "beakers": 9189,
      "befudd": 9190,
      "##alid": 9191,
      "stance": 9192,
      "stym": 9193,
      "stiff": 9194,
      "steril": 9195,
      "storage": 9196,
      "stadium": 9197,
      "##ril": 9198,
      "##rium": 9199,
[...]
